{
  "version": "1.0",
  "truncation": null,
  "padding": null,
  "added_tokens": [
    {
      "id": 0,
      "content": "[PAD]",
      "single_word": false,
      "lstrip": false,
      "rstrip": false,
      "normalized": false,
      "special": true
    },
    {
      "id": 1,
      "content": "[UNK]",
      "single_word": false,
      "lstrip": false,
      "rstrip": false,
      "normalized": false,
      "special": true
    },
    {
      "id": 2,
      "content": "[CLS]",
      "single_word": false,
      "lstrip": false,
      "rstrip": false,
      "normalized": false,
      "special": true
    },
    {
      "id": 3,
      "content": "[SEP]",
      "single_word": false,
      "lstrip": false,
      "rstrip": false,
      "normalized": false,
      "special": true
    },
    {
      "id": 4,
      "content": "[MASK]",
      "single_word": false,
      "lstrip": false,
      "rstrip": false,
      "normalized": false,
      "special": true
    }
  ],
  "normalizer": null,
  "pre_tokenizer": {
    "type": "Whitespace"
  },
  "post_processor": null,
  "decoder": null,
  "model": {
    "type": "BPE",
    "dropout": null,
    "unk_token": null,
    "continuing_subword_prefix": null,
    "end_of_word_suffix": null,
    "fuse_unk": false,
    "byte_fallback": false,
    "ignore_merges": false,
    "vocab": {
      "[PAD]": 0,
      "[UNK]": 1,
      "[CLS]": 2,
      "[SEP]": 3,
      "[MASK]": 4,
      "!": 5,
      "\"": 6,
      "#": 7,
      "$": 8,
      "%": 9,
      "&": 10,
      "'": 11,
      "(": 12,
      ")": 13,
      "*": 14,
      "+": 15,
      ",": 16,
      "-": 17,
      ".": 18,
      "/": 19,
      "0": 20,
      "1": 21,
      "2": 22,
      "3": 23,
      "4": 24,
      "5": 25,
      "6": 26,
      "7": 27,
      "8": 28,
      "9": 29,
      ":": 30,
      ";": 31,
      "<": 32,
      "=": 33,
      ">": 34,
      "?": 35,
      "@": 36,
      "A": 37,
      "B": 38,
      "C": 39,
      "D": 40,
      "E": 41,
      "F": 42,
      "G": 43,
      "H": 44,
      "I": 45,
      "J": 46,
      "K": 47,
      "L": 48,
      "M": 49,
      "N": 50,
      "O": 51,
      "P": 52,
      "Q": 53,
      "R": 54,
      "S": 55,
      "T": 56,
      "U": 57,
      "V": 58,
      "W": 59,
      "X": 60,
      "Y": 61,
      "Z": 62,
      "[": 63,
      "\\": 64,
      "]": 65,
      "^": 66,
      "_": 67,
      "a": 68,
      "b": 69,
      "c": 70,
      "d": 71,
      "e": 72,
      "f": 73,
      "g": 74,
      "h": 75,
      "i": 76,
      "j": 77,
      "k": 78,
      "l": 79,
      "m": 80,
      "n": 81,
      "o": 82,
      "p": 83,
      "q": 84,
      "r": 85,
      "s": 86,
      "t": 87,
      "u": 88,
      "v": 89,
      "w": 90,
      "x": 91,
      "y": 92,
      "z": 93,
      "{": 94,
      "|": 95,
      "}": 96,
      "£": 97,
      "§": 98,
      "®": 99,
      "°": 100,
      "´": 101,
      "·": 102,
      "º": 103,
      "¼": 104,
      "½": 105,
      "¾": 106,
      "¿": 107,
      "À": 108,
      "Æ": 109,
      "Ç": 110,
      "È": 111,
      "É": 112,
      "Ë": 113,
      "Ö": 114,
      "Ø": 115,
      "Ü": 116,
      "ß": 117,
      "à": 118,
      "á": 119,
      "â": 120,
      "ä": 121,
      "æ": 122,
      "ç": 123,
      "è": 124,
      "é": 125,
      "ê": 126,
      "ë": 127,
      "í": 128,
      "î": 129,
      "ñ": 130,
      "ò": 131,
      "ó": 132,
      "ô": 133,
      "õ": 134,
      "ö": 135,
      "ø": 136,
      "ù": 137,
      "ú": 138,
      "û": 139,
      "ü": 140,
      "ÿ": 141,
      "ā": 142,
      "ć": 143,
      "č": 144,
      "ē": 145,
      "Ġ": 146,
      "ī": 147,
      "Œ": 148,
      "œ": 149,
      "Š": 150,
      "š": 151,
      "ū": 152,
      "ſ": 153,
      "ț": 154,
      "̸": 155,
      "Δ": 156,
      "Η": 157,
      "Κ": 158,
      "α": 159,
      "β": 160,
      "η": 161,
      "θ": 162,
      "ι": 163,
      "κ": 164,
      "ν": 165,
      "ο": 166,
      "ς": 167,
      "τ": 168,
      "ϰ": 169,
      "ו": 170,
      "ח": 171,
      "إ": 172,
      "ت": 173,
      "د": 174,
      "ر": 175,
      "ع": 176,
      "ل": 177,
      "م": 178,
      "ن": 179,
      "ه": 180,
      "و": 181,
      "ḥ": 182,
      "–": 183,
      "—": 184,
      "‘": 185,
      "’": 186,
      "“": 187,
      "”": 188,
      "†": 189,
      "•": 190,
      "…": 191,
      "⁡": 192,
      "™": 193,
      "⅓": 194,
      "⅔": 195,
      "∑": 196,
      "−": 197,
      "∣": 198,
      "✠": 199,
      "🦜": 200,
      "th": 201,
      "an": 202,
      "er": 203,
      "in": 204,
      "on": 205,
      "es": 206,
      "the": 207,
      "at": 208,
      "or": 209,
      "en": 210,
      "ar": 211,
      "al": 212,
      "ed": 213,
      "and": 214,
      "of": 215,
      "ou": 216,
      "is": 217,
      "it": 218,
      "as": 219,
      "to": 220,
      "00": 221,
      "18": 222,
      "ing": 223,
      "re": 224,
      "ic": 225,
      "ion": 226,
      "le": 227,
      "st": 228,
      "il": 229,
      "om": 230,
      "he": 231,
      "ent": 232,
      "ad": 233,
      "el": 234,
      "ch": 235,
      "200": 236,
      "ro": 237,
      "est": 238,
      "ol": 239,
      "se": 240,
      "ct": 241,
      "for": 242,
      "ur": 243,
      "am": 244,
      "im": 245,
      "ay": 246,
      "ow": 247,
      "id": 248,
      "ir": 249,
      "ce": 250,
      "be": 251,
      "un": 252,
      "ver": 253,
      "ig": 254,
      "ter": 255,
      "==": 256,
      "ve": 257,
      "ly": 258,
      "ut": 259,
      "ot": 260,
      "ation": 261,
      "em": 262,
      "wh": 263,
      "ag": 264,
      "ra": 265,
      "de": 266,
      "ul": 267,
      "ith": 268,
      "et": 269,
      "con": 270,
      "ill": 271,
      "ther": 272,
      "was": 273,
      "with": 274,
      "pr": 275,
      "ab": 276,
      "that": 277,
      "oun": 278,
      "ap": 279,
      "all": 280,
      "ia": 281,
      "his": 282,
      "by": 283,
      "op": 284,
      "ear": 285,
      "sh": 286,
      "li": 287,
      "our": 288,
      "lo": 289,
      ".)": 290,
      "ain": 291,
      "ac": 292,
      "us": 293,
      "tr": 294,
      "igh": 295,
      "ex": 296,
      "ld": 297,
      "ess": 298,
      "fr": 299,
      "her": 300,
      "land": 301,
      "od": 302,
      "one": 303,
      "ort": 304,
      "====": 305,
      "com": 306,
      "The": 307,
      "ber": 308,
      "art": 309,
      "2005": 310,
      "su": 311,
      "not": 312,
      "you": 313,
      "ate": 314,
      "if": 315,
      "man": 316,
      "ale": 317,
      "ge": 318,
      "out": 319,
      "ke": 320,
      "po": 321,
      "ne": 322,
      "ell": 323,
      "19": 324,
      "so": 325,
      "bl": 326,
      "me": 327,
      "ha": 328,
      "per": 329,
      "qu": 330,
      "pro": 331,
      "ard": 332,
      "pe": 333,
      "ast": 334,
      "ight": 335,
      "ment": 336,
      "gh": 337,
      "go": 338,
      "ant": 339,
      "185": 340,
      "ist": 341,
      "end": 342,
      "000": 343,
      "ust": 344,
      "In": 345,
      "up": 346,
      "2006": 347,
      "ish": 348,
      "year": 349,
      "ip": 350,
      "ary": 351,
      "ep": 352,
      "from": 353,
      "iv": 354,
      "ould": 355,
      "au": 356,
      "are": 357,
      "but": 358,
      "had": 359,
      "186": 360,
      "co": 361,
      "ong": 362,
      "ies": 363,
      "ers": 364,
      "port": 365,
      "sa": 366,
      "ere": 367,
      "184": 368,
      "ity": 369,
      "him": 370,
      "um": 371,
      "ele": 372,
      "pl": 373,
      "ian": 374,
      "An": 375,
      "ive": 376,
      "my": 377,
      "ine": 378,
      "der": 379,
      "ction": 380,
      "17": 381,
      "age": 382,
      "ath": 383,
      "10": 384,
      "187": 385,
      "ok": 386,
      "ough": 387,
      "we": 388,
      "ial": 389,
      "ind": 390,
      "ie": 391,
      "other": 392,
      "Ch": 393,
      "cl": 394,
      "wor": 395,
      "illion": 396,
      "ser": 397,
      "183": 398,
      "years": 399,
      "ich": 400,
      "km": 401,
      "no": 402,
      "15": 403,
      "ound": 404,
      "%,": 405,
      "way": 406,
      "ph": 407,
      "St": 408,
      "have": 409,
      "now": 410,
      "over": 411,
      "fe": 412,
      "ck": 413,
      "20": 414,
      "tal": 415,
      "ome": 416,
      "res": 417,
      "av": 418,
      "she": 419,
      "ud": 420,
      "any": 421,
      "14": 422,
      "ak": 423,
      "),": 424,
      "do": 425,
      "2003": 426,
      "ous": 427,
      "don": 428,
      "ice": 429,
      "ran": 430,
      "Mar": 431,
      "ame": 432,
      "ass": 433,
      "========": 434,
      "ore": 435,
      "bo": 436,
      "Wh": 437,
      "part": 438,
      "Is": 439,
      "col": 440,
      "int": 441,
      "ical": 442,
      "188": 443,
      "ime": 444,
      "son": 445,
      "ry": 446,
      "ure": 447,
      "this": 448,
      "12": 449,
      "coun": 450,
      "mo": 451,
      "fem": 452,
      "De": 453,
      "ib": 454,
      "gr": 455,
      "oc": 456,
      "ated": 457,
      "old": 458,
      "NA": 459,
      "said": 460,
      ").": 461,
      "ence": 462,
      "mer": 463,
      "own": 464,
      "which": 465,
      "were": 466,
      "row": 467,
      "dr": 468,
      "ire": 469,
      "16": 470,
      ".”": 471,
      "pres": 472,
      "death": 473,
      "13": 474,
      "du": 475,
      "ton": 476,
      "day": 477,
      "ite": 478,
      "ubl": 479,
      "fa": 480,
      "dis": 481,
      "there": 482,
      "they": 483,
      "lands": 484,
      "ma": 485,
      "ack": 486,
      "able": 487,
      "ru": 488,
      "182": 489,
      "ational": 490,
      "female": 491,
      "af": 492,
      "thing": 493,
      "ult": 494,
      "male": 495,
      "ll": 496,
      "low": 497,
      "os": 498,
      "Th": 499,
      "very": 500,
      "opul": 501,
      "ri": 502,
      "its": 503,
      "total": 504,
      "aw": 505,
      "ick": 506,
      "Ne": 507,
      "ree": 508,
      "No": 509,
      "serv": 510,
      "Jo": 511,
      "min": 512,
      "te": 513,
      "off": 514,
      "ign": 515,
      "iz": 516,
      "them": 517,
      "Mr": 518,
      "iss": 519,
      "when": 520,
      "Lon": 521,
      "ord": 522,
      "tern": 523,
      "some": 524,
      "London": 525,
      "can": 526,
      "ide": 527,
      "itt": 528,
      "He": 529,
      "wo": 530,
      "mar": 531,
      "would": 532,
      "form": 533,
      "ug": 534,
      "ang": 535,
      "pt": 536,
      "tain": 537,
      "199": 538,
      "ven": 539,
      "eral": 540,
      "23": 541,
      "cent": 542,
      "ue": 543,
      "sel": 544,
      "under": 545,
      "ans": 546,
      "popul": 547,
      "cted": 548,
      "ations": 549,
      "reat": 550,
      "une": 551,
      "ret": 552,
      "24": 553,
      "11": 554,
      "2004": 555,
      "ates": 556,
      "ade": 557,
      "ident": 558,
      "comm": 559,
      "ty": 560,
      "ens": 561,
      ",”": 562,
      "fore": 563,
      "know": 564,
      "billion": 565,
      "En": 566,
      "who": 567,
      "Ju": 568,
      "par": 569,
      "br": 570,
      "og": 571,
      "outh": 572,
      "rit": 573,
      "les": 574,
      "about": 575,
      "May": 576,
      "ater": 577,
      "25": 578,
      "ister": 579,
      "30": 580,
      "US": 581,
      "anc": 582,
      "ile": 583,
      "ited": 584,
      "ric": 585,
      "ful": 586,
      "pend": 587,
      "been": 588,
      "ember": 589,
      "try": 590,
      "Un": 591,
      "ance": 592,
      "July": 593,
      "has": 594,
      "your": 595,
      "their": 596,
      "into": 597,
      "ext": 598,
      "ition": 599,
      "bur": 600,
      "eb": 601,
      "than": 602,
      "fir": 603,
      "million": 604,
      "say": 605,
      "head": 606,
      "And": 607,
      "sc": 608,
      "Pro": 609,
      "time": 610,
      ");": 611,
      "more": 612,
      "ublic": 613,
      "ach": 614,
      "ory": 615,
      "ports": 616,
      "then": 617,
      "ob": 618,
      "ks": 619,
      "here": 620,
      "cap": 621,
      "what": 622,
      "could": 623,
      "je": 624,
      "point": 625,
      "will": 626,
      "June": 627,
      "ely": 628,
      "ied": 629,
      "49": 630,
      "ren": 631,
      "ilit": 632,
      "ural": 633,
      "pos": 634,
      "orn": 635,
      "March": 636,
      "gen": 637,
      "fer": 638,
      "most": 639,
      "self": 640,
      "gl": 641,
      "rat": 642,
      "22": 643,
      "rate": 644,
      "pre": 645,
      "fl": 646,
      "hn": 647,
      "last": 648,
      "produ": 649,
      "It": 650,
      "long": 651,
      "lar": 652,
      "population": 653,
      "New": 654,
      "Le": 655,
      "vern": 656,
      "Nor": 657,
      "ouse": 658,
      "air": 659,
      "As": 660,
      "Se": 661,
      "cont": 662,
      "UN": 663,
      "conom": 664,
      "look": 665,
      "John": 666,
      "like": 667,
      "Ar": 668,
      "But": 669,
      "see": 670,
      "Gu": 671,
      "ink": 672,
      "vol": 673,
      "ts": 674,
      "..": 675,
      "hand": 676,
      "inc": 677,
      "ions": 678,
      "Apr": 679,
      "ved": 680,
      "================": 681,
      "April": 682,
      "26": 683,
      "?”": 684,
      "ese": 685,
      "down": 686,
      "ica": 687,
      "govern": 688,
      "ince": 689,
      "Islands": 690,
      "thor": 691,
      "two": 692,
      "27": 693,
      "28": 694,
      "member": 695,
      "though": 696,
      "];": 697,
      "Feb": 698,
      "urn": 699,
      "did": 700,
      "ace": 701,
      "mon": 702,
      "again": 703,
      "high": 704,
      "reg": 705,
      "ustr": 706,
      "comp": 707,
      "ta": 708,
      "DP": 709,
      "180": 710,
      "first": 711,
      "come": 712,
      "ures": 713,
      "car": 714,
      "fo": 715,
      "after": 716,
      "election": 717,
      "Con": 718,
      "act": 719,
      "note": 720,
      "bir": 721,
      "new": 722,
      "ution": 723,
      "sp": 724,
      "2001": 725,
      "ward": 726,
      "good": 727,
      "author": 728,
      "29": 729,
      "water": 730,
      "ales": 731,
      "get": 732,
      "let": 733,
      "red": 734,
      "ject": 735,
      "sm": 736,
      "ious": 737,
      "Al": 738,
      "Ge": 739,
      "ilitary": 740,
      "ces": 741,
      "ief": 742,
      "43": 743,
      "ave": 744,
      "cur": 745,
      "cy": 746,
      "bet": 747,
      "ham": 748,
      "spe": 749,
      "ina": 750,
      "Nov": 751,
      "vent": 752,
      "rait": 753,
      "ally": 754,
      "Re": 755,
      "many": 756,
      "Ind": 757,
      "Sep": 758,
      "21": 759,
      "app": 760,
      "ote": 761,
      "ps": 762,
      "Rep": 763,
      "well": 764,
      "IC": 765,
      "Jany": 766,
      "read": 767,
      "Aug": 768,
      "eng": 769,
      "oman": 770,
      "Dec": 771,
      "pol": 772,
      "ms": 773,
      "ank": 774,
      "50": 775,
      "ways": 776,
      "put": 777,
      "ash": 778,
      "att": 779,
      ")/": 780,
      "sy": 781,
      "ii": 782,
      "birth": 783,
      "present": 784,
      "mu": 785,
      "des": 786,
      "ict": 787,
      "bro": 788,
      "only": 789,
      "ittle": 790,
      "raph": 791,
      "ship": 792,
      "ever": 793,
      "general": 794,
      "vis": 795,
      "ered": 796,
      "sq": 797,
      "ff": 798,
      "med": 799,
      "ER": 800,
      "iet": 801,
      "cal": 802,
      "held": 803,
      "iver": 804,
      "189": 805,
      "Part": 806,
      "cour": 807,
      "cu": 808,
      "aint": 809,
      "portrait": 810,
      "Pe": 811,
      "South": 812,
      "ily": 813,
      "where": 814,
      "ern": 815,
      "work": 816,
      "incl": 817,
      "light": 818,
      "ings": 819,
      "thr": 820,
      "country": 821,
      "president": 822,
      "io": 823,
      "40": 824,
      "how": 825,
      "Pol": 826,
      "made": 827,
      "since": 828,
      "uc": 829,
      "ctor": 830,
      "ative": 831,
      "pp": 832,
      "47": 833,
      "atural": 834,
      "men": 835,
      "little": 836,
      "GDP": 837,
      "az": 838,
      "house": 839,
      "Mal": 840,
      "ene": 841,
      "amb": 842,
      "came": 843,
      "ix": 844,
      "65": 845,
      "Republic": 846,
      "Oct": 847,
      "near": 848,
      "ople": 849,
      "ific": 850,
      "government": 851,
      "ins": 852,
      "ery": 853,
      "name": 854,
      "Ed": 855,
      "Ex": 856,
      "ild": 857,
      "led": 858,
      "Party": 859,
      "2002": 860,
      "rem": 861,
      "lim": 862,
      "great": 863,
      "bar": 864,
      "night": 865,
      "chief": 866,
      "econom": 867,
      "cess": 868,
      "imes": 869,
      "right": 870,
      "Fran": 871,
      "Par": 872,
      "che": 873,
      "cons": 874,
      "before": 875,
      "ats": 876,
      "64": 877,
      "ower": 878,
      "National": 879,
      "ving": 880,
      "went": 881,
      "urch": 882,
      "gu": 883,
      "ah": 884,
      "Ro": 885,
      "ey": 886,
      "less": 887,
      "eld": 888,
      "such": 889,
      "bor": 890,
      "60": 891,
      "gan": 892,
      "ase": 893,
      "ices": 894,
      "much": 895,
      "lect": 896,
      "AN": 897,
      "fin": 898,
      "For": 899,
      "ss": 900,
      "upon": 901,
      "lie": 902,
      "unt": 903,
      "ley": 904,
      "soc": 905,
      "Com": 906,
      "ste": 907,
      "inter": 908,
      "She": 909,
      "mber": 910,
      "ID": 911,
      "ital": 912,
      "Co": 913,
      "through": 914,
      "You": 915,
      "sch": 916,
      "mb": 917,
      "depend": 918,
      "never": 919,
      "law": 920,
      "):": 921,
      "ular": 922,
      "bel": 923,
      "vel": 924,
      "short": 925,
      "ple": 926,
      "ington": 927,
      "ternational": 928,
      "may": 929,
      "ves": 930,
      "includ": 931,
      "set": 932,
      "sub": 933,
      "service": 934,
      "ise": 935,
      "ange": 936,
      "sur": 937,
      "back": 938,
      "deaths": 939,
      "Pr": 940,
      "que": 941,
      "To": 942,
      "grow": 943,
      "must": 944,
      "every": 945,
      "party": 946,
      "stem": 947,
      "war": 948,
      "ished": 949,
      "ub": 950,
      "ho": 951,
      "three": 952,
      "ican": 953,
      "emoc": 954,
      "80": 955,
      "ced": 956,
      "Mon": 957,
      "stit": 958,
      "!”": 959,
      "ines": 960,
      "ier": 961,
      "uro": 962,
      "rain": 963,
      "ft": 964,
      "Man": 965,
      "sat": 966,
      "got": 967,
      "eleph": 968,
      "bbl": 969,
      "just": 970,
      "West": 971,
      "35": 972,
      "31": 973,
      "stru": 974,
      "ON": 975,
      "cean": 976,
      "AR": 977,
      "ten": 978,
      "sto": 979,
      "ked": 980,
      "leg": 981,
      "life": 982,
      "call": 983,
      "use": 984,
      "ble": 985,
      "ose": 986,
      "cts": 987,
      "ford": 988,
      "side": 989,
      "cr": 990,
      "should": 991,
      ".,": 992,
      "ission": 993,
      "dom": 994,
      "pass": 995,
      "too": 996,
      "system": 997,
      "far": 998,
      "clo": 999,
      "nor": 1000,
      "sum": 1001,
      "iam": 1002,
      "45": 1003,
      "think": 1004,
      "ement": 1005,
      "Geor": 1006,
      "ional": 1007,
      "Cap": 1008,
      "power": 1009,
      "ible": 1010,
      "ons": 1011,
      "Jan": 1012,
      "179": 1013,
      "gent": 1014,
      "found": 1015,
      "istan": 1016,
      "Afr": 1017,
      "ody": 1018,
      "cau": 1019,
      "ames": 1020,
      "births": 1021,
      "live": 1022,
      "ograph": 1023,
      "sir": 1024,
      "kWh": 1025,
      "ors": 1026,
      "rel": 1027,
      "gas": 1028,
      "ween": 1029,
      "33": 1030,
      "Bar": 1031,
      "Ocean": 1032,
      "elected": 1033,
      "ann": 1034,
      "70": 1035,
      "IS": 1036,
      "Tr": 1037,
      "ork": 1038,
      "bre": 1039,
      "vote": 1040,
      "coll": 1041,
      "uss": 1042,
      "trans": 1043,
      "ness": 1044,
      "This": 1045,
      "Will": 1046,
      "What": 1047,
      "Euro": 1048,
      "bu": 1049,
      "uring": 1050,
      "between": 1051,
      "press": 1052,
      "none": 1053,
      "being": 1054,
      "fol": 1055,
      "vo": 1056,
      "Democ": 1057,
      "Col": 1058,
      "Sc": 1059,
      "cond": 1060,
      "ES": 1061,
      "ner": 1062,
      "uten": 1063,
      "ities": 1064,
      "Saint": 1065,
      "rench": 1066,
      "state": 1067,
      "gy": 1068,
      "Mo": 1069,
      "Bel": 1070,
      "shire": 1071,
      "tri": 1072,
      "ron": 1073,
      "Sept": 1074,
      "these": 1075,
      "LL": 1076,
      "away": 1077,
      "military": 1078,
      "run": 1079,
      "FA": 1080,
      "ters": 1081,
      "next": 1082,
      "stand": 1083,
      "ond": 1084,
      "Europe": 1085,
      "bert": 1086,
      "French": 1087,
      "place": 1088,
      "atch": 1089,
      "berg": 1090,
      "even": 1091,
      "cause": 1092,
      "Brit": 1093,
      "reen": 1094,
      "IN": 1095,
      "iron": 1096,
      "amp": 1097,
      "Ant": 1098,
      "ife": 1099,
      "mark": 1100,
      "Coun": 1101,
      "lead": 1102,
      "ger": 1103,
      "Austr": 1104,
      "Ma": 1105,
      "cer": 1106,
      "ual": 1107,
      "ased": 1108,
      "ope": 1109,
      "international": 1110,
      "EN": 1111,
      "37": 1112,
      "sea": 1113,
      "hel": 1114,
      "says": 1115,
      "Air": 1116,
      "ted": 1117,
      "France": 1118,
      "Her": 1119,
      "und": 1120,
      "shall": 1121,
      "sign": 1122,
      "cil": 1123,
      "tra": 1124,
      "At": 1125,
      "Amer": 1126,
      "might": 1127,
      "val": 1128,
      "make": 1129,
      "Sp": 1130,
      "agric": 1131,
      "United": 1132,
      "Island": 1133,
      "67": 1134,
      "agricult": 1135,
      "minister": 1136,
      "icial": 1137,
      "elections": 1138,
      "90": 1139,
      "plo": 1140,
      "play": 1141,
      "cor": 1142,
      "hal": 1143,
      "body": 1144,
      "ys": 1145,
      "king": 1146,
      "ield": 1147,
      "Miss": 1148,
      "small": 1149,
      "round": 1150,
      "turn": 1151,
      "world": 1152,
      "2000": 1153,
      "cro": 1154,
      "ting": 1155,
      "aim": 1156,
      "pointed": 1157,
      "ellow": 1158,
      "colle": 1159,
      "34": 1160,
      "utenberg": 1161,
      "production": 1162,
      "rew": 1163,
      "CH": 1164,
      "arch": 1165,
      "Char": 1166,
      "Bo": 1167,
      "gar": 1168,
      "took": 1169,
      "So": 1170,
      "white": 1171,
      "ester": 1172,
      "used": 1173,
      "sec": 1174,
      "85": 1175,
      "sw": 1176,
      "Br": 1177,
      "Sir": 1178,
      "Sw": 1179,
      "ador": 1180,
      "Democrat": 1181,
      "ral": 1182,
      "77": 1183,
      "Ger": 1184,
      "ient": 1185,
      "ool": 1186,
      "39": 1187,
      "lad": 1188,
      "book": 1189,
      "vols": 1190,
      "ought": 1191,
      "mission": 1192,
      "North": 1193,
      "William": 1194,
      "den": 1195,
      "ged": 1196,
      "als": 1197,
      "contin": 1198,
      "ef": 1199,
      "augh": 1200,
      "word": 1201,
      "ried": 1202,
      "jo": 1203,
      "result": 1204,
      "elect": 1205,
      "ivers": 1206,
      "thern": 1207,
      "seats": 1208,
      "55": 1209,
      "ages": 1210,
      "met": 1211,
      "1854": 1212,
      "tribut": 1213,
      "rist": 1214,
      "growth": 1215,
      "wa": 1216,
      "Or": 1217,
      "open": 1218,
      "prov": 1219,
      "ones": 1220,
      "four": 1221,
      "38": 1222,
      "line": 1223,
      "36": 1224,
      "yal": 1225,
      "Tur": 1226,
      "There": 1227,
      "aking": 1228,
      "himself": 1229,
      "going": 1230,
      "Mrs": 1231,
      "pet": 1232,
      "================================": 1233,
      "expend": 1234,
      "Sea": 1235,
      "elephone": 1236,
      "Sh": 1237,
      "la": 1238,
      "tell": 1239,
      "raw": 1240,
      "while": 1241,
      "48": 1242,
      "rab": 1243,
      "MO": 1244,
      "str": 1245,
      "Roman": 1246,
      "jor": 1247,
      "also": 1248,
      "100": 1249,
      "seem": 1250,
      "youn": 1251,
      "still": 1252,
      "ired": 1253,
      "ning": 1254,
      "percent": 1255,
      "That": 1256,
      "lieut": 1257,
      "ricity": 1258,
      "Dece": 1259,
      "James": 1260,
      "church": 1261,
      "Project": 1262,
      "expendit": 1263,
      "Natural": 1264,
      "aced": 1265,
      "five": 1266,
      "December": 1267,
      "AP": 1268,
      "...": 1269,
      "take": 1270,
      "people": 1271,
      "sup": 1272,
      "Li": 1273,
      "sk": 1274,
      "ana": 1275,
      "code": 1276,
      "aved": 1277,
      "expenditures": 1278,
      "cop": 1279,
      "dif": 1280,
      "equ": 1281,
      "ling": 1282,
      "Gutenberg": 1283,
      "914": 1284,
      "mas": 1285,
      "iness": 1286,
      "stitution": 1287,
      "thought": 1288,
      "Russ": 1289,
      "foot": 1290,
      "Ph": 1291,
      "George": 1292,
      "Ox": 1293,
      "road": 1294,
      "IV": 1295,
      "tries": 1296,
      "uel": 1297,
      "75": 1298,
      "unic": 1299,
      "1855": 1300,
      "Port": 1301,
      "illa": 1302,
      "members": 1303,
      "68": 1304,
      "char": 1305,
      "ified": 1306,
      "We": 1307,
      "Car": 1308,
      "ating": 1309,
      "without": 1310,
      "del": 1311,
      "Dubl": 1312,
      "King": 1313,
      "China": 1314,
      "Dublin": 1315,
      "Cour": 1316,
      "cial": 1317,
      "DC": 1318,
      "tow": 1319,
      "Anne": 1320,
      "Well": 1321,
      "oil": 1322,
      "reas": 1323,
      ".;": 1324,
      "wr": 1325,
      "those": 1326,
      "MA": 1327,
      "won": 1328,
      "1857": 1329,
      "want": 1330,
      "istr": 1331,
      "British": 1332,
      "sil": 1333,
      "ai": 1334,
      "cast": 1335,
      "ago": 1336,
      "cut": 1337,
      "They": 1338,
      "1852": 1339,
      "thy": 1340,
      "Democratic": 1341,
      "uck": 1342,
      "ark": 1343,
      "eyes": 1344,
      "half": 1345,
      "dol": 1346,
      "rep": 1347,
      "same": 1348,
      "dress": 1349,
      "economic": 1350,
      "99": 1351,
      "ments": 1352,
      "46": 1353,
      "ense": 1354,
      "services": 1355,
      "sing": 1356,
      "along": 1357,
      "bran": 1358,
      "Bur": 1359,
      "alia": 1360,
      "including": 1361,
      "rest": 1362,
      "both": 1363,
      "wind": 1364,
      "If": 1365,
      "div": 1366,
      "Gl": 1367,
      "local": 1368,
      "dro": 1369,
      "Ser": 1370,
      "Can": 1371,
      "face": 1372,
      "paved": 1373,
      "father": 1374,
      "saw": 1375,
      "bed": 1376,
      "ania": 1377,
      "cept": 1378,
      "countries": 1379,
      "enn": 1380,
      "major": 1381,
      "41": 1382,
      "change": 1383,
      "hold": 1384,
      "orial": 1385,
      "Edin": 1386,
      "room": 1387,
      "during": 1388,
      "appointed": 1389,
      "lear": 1390,
      "hour": 1391,
      "iew": 1392,
      "fish": 1393,
      "follow": 1394,
      "works": 1395,
      "glish": 1396,
      "CO": 1397,
      "English": 1398,
      "ility": 1399,
      "claim": 1400,
      "resident": 1401,
      "because": 1402,
      "itical": 1403,
      "ium": 1404,
      "fri": 1405,
      "woman": 1406,
      "young": 1407,
      "iter": 1408,
      "terms": 1409,
      "Af": 1410,
      "abor": 1411,
      "78": 1412,
      "1858": 1413,
      "school": 1414,
      "represent": 1415,
      "LO": 1416,
      "79": 1417,
      "sl": 1418,
      "Military": 1419,
      "ize": 1420,
      "Ital": 1421,
      "males": 1422,
      "view": 1423,
      "remain": 1424,
      "1856": 1425,
      "Elect": 1426,
      "Thom": 1427,
      "Christ": 1428,
      "gin": 1429,
      "uary": 1430,
      "atter": 1431,
      "1851": 1432,
      "lord": 1433,
      "76": 1434,
      "ail": 1435,
      "ped": 1436,
      "dollar": 1437,
      "32": 1438,
      "Wash": 1439,
      "hon": 1440,
      "count": 1441,
      "ants": 1442,
      "ung": 1443,
      "agre": 1444,
      "58": 1445,
      "Washington": 1446,
      "1859": 1447,
      "India": 1448,
      "Electricity": 1449,
      "ament": 1450,
      "mod": 1451,
      "always": 1452,
      "1860": 1453,
      "add": 1454,
      "products": 1455,
      "idd": 1456,
      "Soc": 1457,
      "York": 1458,
      "Guine": 1459,
      "ama": 1460,
      "fect": 1461,
      "Cam": 1462,
      "bound": 1463,
      "friend": 1464,
      "tro": 1465,
      "person": 1466,
      "44": 1467,
      "highest": 1468,
      "yr": 1469,
      "another": 1470,
      "branch": 1471,
      "AM": 1472,
      "ustry": 1473,
      "Arab": 1474,
      "UK": 1475,
      "1853": 1476,
      "appear": 1477,
      "rent": 1478,
      "captain": 1479,
      "left": 1480,
      "nothing": 1481,
      "occ": 1482,
      "1865": 1483,
      "Be": 1484,
      "ane": 1485,
      "wards": 1486,
      "reet": 1487,
      "ived": 1488,
      "II": 1489,
      "bus": 1490,
      "looked": 1491,
      "Thomas": 1492,
      "ris": 1493,
      "gra": 1494,
      "umber": 1495,
      "convent": 1496,
      "dependence": 1497,
      "iles": 1498,
      "Hen": 1499,
      "TU": 1500,
      "ided": 1501,
      "dren": 1502,
      "How": 1503,
      "January": 1504,
      "Guinea": 1505,
      "prof": 1506,
      "industry": 1507,
      "TH": 1508,
      "di": 1509,
      "called": 1510,
      "Min": 1511,
      "sol": 1512,
      "known": 1513,
      "AD": 1514,
      "fam": 1515,
      "ua": 1516,
      "done": 1517,
      "ised": 1518,
      "ildren": 1519,
      "agriculture": 1520,
      "pect": 1521,
      "ca": 1522,
      "atic": 1523,
      "semb": 1524,
      "ature": 1525,
      "1861": 1526,
      "ract": 1527,
      "natural": 1528,
      "foreign": 1529,
      "grou": 1530,
      "ism": 1531,
      "1847": 1532,
      "ption": 1533,
      "ards": 1534,
      "Per": 1535,
      "field": 1536,
      "yet": 1537,
      "1841": 1538,
      "ordin": 1539,
      "Africa": 1540,
      "territ": 1541,
      "jud": 1542,
      "AID": 1543,
      "island": 1544,
      "69": 1545,
      "Union": 1546,
      "lution": 1547,
      "Court": 1548,
      "Ire": 1549,
      "Intern": 1550,
      "abl": 1551,
      "1862": 1552,
      "Ireland": 1553,
      "second": 1554,
      "give": 1555,
      "educ": 1556,
      "children": 1557,
      "1870": 1558,
      "band": 1559,
      "consum": 1560,
      "1868": 1561,
      "eas": 1562,
      "olog": 1563,
      "iety": 1564,
      "ues": 1565,
      "yn": 1566,
      "89": 1567,
      "AIDS": 1568,
      "main": 1569,
      "ides": 1570,
      "wood": 1571,
      "conventional": 1572,
      "estic": 1573,
      "times": 1574,
      "IF": 1575,
      "ather": 1576,
      "ood": 1577,
      "wal": 1578,
      "LE": 1579,
      "Internet": 1580,
      "xx": 1581,
      "1866": 1582,
      "42": 1583,
      "dire": 1584,
      "1846": 1585,
      "lowest": 1586,
      "official": 1587,
      "AS": 1588,
      "Que": 1589,
      "hab": 1590,
      "ze": 1591,
      "omin": 1592,
      "vi": 1593,
      "When": 1594,
      "nm": 1595,
      "conj": 1596,
      "66": 1597,
      "Oc": 1598,
      "angu": 1599,
      "role": 1600,
      "ploy": 1601,
      "gold": 1602,
      "consumption": 1603,
      "fort": 1604,
      "capital": 1605,
      "heart": 1606,
      "differ": 1607,
      "har": 1608,
      "ada": 1609,
      "igr": 1610,
      "ney": 1611,
      "iana": 1612,
      "Mad": 1613,
      "civ": 1614,
      "ston": 1615,
      "soon": 1616,
      "Charles": 1617,
      "88": 1618,
      "Eng": 1619,
      "hist": 1620,
      "border": 1621,
      "suc": 1622,
      "force": 1623,
      "emb": 1624,
      "ays": 1625,
      "1874": 1626,
      "bt": 1627,
      "ull": 1628,
      "Camb": 1629,
      "isl": 1630,
      "ives": 1631,
      "1843": 1632,
      "Trin": 1633,
      "La": 1634,
      "telephone": 1635,
      "kind": 1636,
      "Oil": 1637,
      "Econom": 1638,
      "My": 1639,
      "poor": 1640,
      "Henry": 1641,
      "PP": 1642,
      "pat": 1643,
      "earth": 1644,
      "za": 1645,
      "ended": 1646,
      "sembly": 1647,
      "stations": 1648,
      "1869": 1649,
      "pap": 1650,
      "ref": 1651,
      "ster": 1652,
      "river": 1653,
      "against": 1654,
      "Im": 1655,
      "hy": 1656,
      "vice": 1657,
      "sever": 1658,
      "partic": 1659,
      "ization": 1660,
      "1850": 1661,
      "roll": 1662,
      "establ": 1663,
      "HIV": 1664,
      "1840": 1665,
      "poss": 1666,
      "large": 1667,
      "59": 1668,
      "ists": 1669,
      "1849": 1670,
      "President": 1671,
      "ury": 1672,
      "Germany": 1673,
      "All": 1674,
      "Octo": 1675,
      "home": 1676,
      "Russia": 1677,
      "Do": 1678,
      "October": 1679,
      "avy": 1680,
      "food": 1681,
      "domestic": 1682,
      "Ir": 1683,
      "employ": 1684,
      "hor": 1685,
      "ined": 1686,
      "ye": 1687,
      "zone": 1688,
      "loom": 1689,
      "command": 1690,
      "velop": 1691,
      "Wor": 1692,
      "cab": 1693,
      "return": 1694,
      "key": 1695,
      "court": 1696,
      "mir": 1697,
      "term": 1698,
      "1867": 1699,
      "1848": 1700,
      "ars": 1701,
      "Nether": 1702,
      "esh": 1703,
      "irl": 1704,
      "ourn": 1705,
      "States": 1706,
      "fact": 1707,
      "Clim": 1708,
      "On": 1709,
      "1999": 1710,
      "former": 1711,
      "iger": 1712,
      "aged": 1713,
      "agreement": 1714,
      "ald": 1715,
      "antic": 1716,
      "pur": 1717,
      "1845": 1718,
      "business": 1719,
      "Climate": 1720,
      "town": 1721,
      "whale": 1722,
      "does": 1723,
      "rece": 1724,
      "among": 1725,
      "52": 1726,
      "Australia": 1727,
      "boat": 1728,
      "1842": 1729,
      "ctions": 1730,
      "Cur": 1731,
      "1873": 1732,
      "idge": 1733,
      "roleum": 1734,
      "East": 1735,
      "PU": 1736,
      "once": 1737,
      "black": 1738,
      "females": 1739,
      "People": 1740,
      "Ad": 1741,
      "results": 1742,
      ",—": 1743,
      "OR": 1744,
      "popular": 1745,
      "Gover": 1746,
      "1872": 1747,
      "mind": 1748,
      "ipt": 1749,
      "economy": 1750,
      "Land": 1751,
      "seen": 1752,
      "rown": 1753,
      "England": 1754,
      "1864": 1755,
      "Council": 1756,
      "1863": 1757,
      "ized": 1758,
      "aid": 1759,
      "esia": 1760,
      "ceed": 1761,
      "ik": 1762,
      "theat": 1763,
      "things": 1764,
      "soci": 1765,
      "petroleum": 1766,
      "tom": 1767,
      "ico": 1768,
      "fair": 1769,
      "hands": 1770,
      "%:": 1771,
      "happ": 1772,
      "Popul": 1773,
      "1837": 1774,
      "feel": 1775,
      "aut": 1776,
      "ually": 1777,
      "ened": 1778,
      "civil": 1779,
      "told": 1780,
      "Joe": 1781,
      "Ber": 1782,
      "gentle": 1783,
      "98": 1784,
      "Law": 1785,
      "born": 1786,
      "oney": 1787,
      "Dr": 1788,
      "ents": 1789,
      "Eli": 1790,
      "apan": 1791,
      "keep": 1792,
      "cover": 1793,
      "Then": 1794,
      "72": 1795,
      "icit": 1796,
      "1839": 1797,
      "better": 1798,
      "omb": 1799,
      "hear": 1800,
      "1844": 1801,
      "omen": 1802,
      "Sam": 1803,
      "stud": 1804,
      "Su": 1805,
      "gro": 1806,
      "rea": 1807,
      "Phil": 1808,
      "viron": 1809,
      "ground": 1810,
      "Kore": 1811,
      "71": 1812,
      "zer": 1813,
      "chem": 1814,
      "Gree": 1815,
      "Mor": 1816,
      "1838": 1817,
      "73": 1818,
      "plain": 1819,
      "full": 1820,
      "1871": 1821,
      "1881": 1822,
      "certain": 1823,
      "Japan": 1824,
      "fellow": 1825,
      "cir": 1826,
      "placed": 1827,
      "1880": 1828,
      "master": 1829,
      "Italy": 1830,
      "sure": 1831,
      "61": 1832,
      "62": 1833,
      "Dar": 1834,
      "Mac": 1835,
      "pose": 1836,
      "vironment": 1837,
      "seas": 1838,
      "Tran": 1839,
      "MI": 1840,
      "dist": 1841,
      "iod": 1842,
      "Comm": 1843,
      "Ff": 1844,
      "TER": 1845,
      "heard": 1846,
      "oper": 1847,
      "54": 1848,
      "1997": 1849,
      "migr": 1850,
      "mus": 1851,
      "national": 1852,
      "Indian": 1853,
      "Netherlands": 1854,
      "tw": 1855,
      "ification": 1856,
      "each": 1857,
      "ert": 1858,
      "became": 1859,
      "course": 1860,
      "Sur": 1861,
      "ison": 1862,
      "brother": 1863,
      "GR": 1864,
      "gau": 1865,
      "requ": 1866,
      "broad": 1867,
      "assist": 1868,
      ".—": 1869,
      "sou": 1870,
      "akes": 1871,
      "west": 1872,
      "corn": 1873,
      "fully": 1874,
      "vest": 1875,
      "Po": 1876,
      "girl": 1877,
      "something": 1878,
      "inet": 1879,
      "1878": 1880,
      "stant": 1881,
      "sho": 1882,
      "By": 1883,
      "beth": 1884,
      "1875": 1885,
      "door": 1886,
      "Mont": 1887,
      "answ": 1888,
      "Cent": 1889,
      "resp": 1890,
      "lay": 1891,
      "Marilla": 1892,
      "51": 1893,
      "cre": 1894,
      "els": 1895,
      "igin": 1896,
      "Scot": 1897,
      "Govern": 1898,
      "hall": 1899,
      "PC": 1900,
      "six": 1901,
      "real": 1902,
      "1832": 1903,
      "position": 1904,
      "63": 1905,
      "ior": 1906,
      ".[": 1907,
      "74": 1908,
      "Green": 1909,
      "1877": 1910,
      "1830": 1911,
      "current": 1912,
      "top": 1913,
      "sector": 1914,
      "ets": 1915,
      "Government": 1916,
      "itch": 1917,
      "show": 1918,
      "cell": 1919,
      "college": 1920,
      "TO": 1921,
      "Geograph": 1922,
      "Slo": 1923,
      "1836": 1924,
      "Nove": 1925,
      "secret": 1926,
      "November": 1927,
      "Not": 1928,
      "mouth": 1929,
      "ctic": 1930,
      "ipp": 1931,
      "profess": 1932,
      "Korea": 1933,
      "1876": 1934,
      "thir": 1935,
      "ude": 1936,
      "202": 1937,
      "pret": 1938,
      "whe": 1939,
      "Gr": 1940,
      "sle": 1941,
      "love": 1942,
      "mach": 1943,
      "LA": 1944,
      "Yes": 1945,
      "mag": 1946,
      "lock": 1947,
      "Eliza": 1948,
      "gauge": 1949,
      "theatre": 1950,
      "ics": 1951,
      "chair": 1952,
      "mbass": 1953,
      "53": 1954,
      "hard": 1955,
      "myself": 1956,
      "nam": 1957,
      "owe": 1958,
      "liament": 1959,
      "IM": 1960,
      "Cy": 1961,
      "ming": 1962,
      "asked": 1963,
      "047": 1964,
      "Assembly": 1965,
      "until": 1966,
      "mom": 1967,
      "Spain": 1968,
      "hol": 1969,
      "public": 1970,
      "IO": 1971,
      "dear": 1972,
      "serve": 1973,
      "till": 1974,
      "exports": 1975,
      "draw": 1976,
      "gave": 1977,
      "1831": 1978,
      "ask": 1979,
      "Lo": 1980,
      "dark": 1981,
      "organ": 1982,
      "cle": 1983,
      "1835": 1984,
      "European": 1985,
      "Liber": 1986,
      "best": 1987,
      "street": 1988,
      "F4": 1989,
      "Fl": 1990,
      "ake": 1991,
      "looking": 1992,
      "Peter": 1993,
      "chap": 1994,
      "His": 1995,
      "pract": 1996,
      "prom": 1997,
      "cord": 1998,
      "islands": 1999,
      "iling": 2000,
      "ither": 2001,
      "Why": 2002,
      "around": 2003,
      "Lord": 2004,
      "House": 2005,
      "account": 2006,
      "Atl": 2007,
      "83": 2008,
      "money": 2009,
      "boy": 2010,
      "seemed": 2011,
      "ministr": 2012,
      "number": 2013,
      "origin": 2014,
      "rey": 2015,
      "1882": 2016,
      "Niger": 2017,
      "coordin": 2018,
      "Cro": 2019,
      "Pac": 2020,
      "ban": 2021,
      "bad": 2022,
      "ute": 2023,
      "priv": 2024,
      "find": 2025,
      "fast": 2026,
      "Glas": 2027,
      "chemical": 2028,
      "address": 2029,
      "F2": 2030,
      "var": 2031,
      "82": 2032,
      "fall": 2033,
      "knew": 2034,
      "consid": 2035,
      "elt": 2036,
      "F1": 2037,
      "thou": 2038,
      "ured": 2039,
      "August": 2040,
      "Elizabeth": 2041,
      "1834": 2042,
      "retired": 2043,
      "ering": 2044,
      "Antar": 2045,
      "Oh": 2046,
      "HO": 2047,
      "sent": 2048,
      "Bloom": 2049,
      "Har": 2050,
      "iti": 2051,
      "flo": 2052,
      "sun": 2053,
      "Pacific": 2054,
      "Population": 2055,
      "bab": 2056,
      "enough": 2057,
      "Den": 2058,
      "gal": 2059,
      "groups": 2060,
      "Bl": 2061,
      "hur": 2062,
      "loc": 2063,
      "1879": 2064,
      "posed": 2065,
      "coast": 2066,
      "PO": 2067,
      "few": 2068,
      "hours": 2069,
      "56": 2070,
      "F3": 2071,
      "Sun": 2072,
      "ken": 2073,
      "stat": 2074,
      "coordinates": 2075,
      "Sal": 2076,
      "univ": 2077,
      "didn": 2078,
      "pped": 2079,
      "57": 2080,
      "500": 2081,
      "ique": 2082,
      "gow": 2083,
      "mother": 2084,
      "proved": 2085,
      "Change": 2086,
      "Pal": 2087,
      "hun": 2088,
      "common": 2089,
      "belie": 2090,
      "sex": 2091,
      "islative": 2092,
      "Med": 2093,
      "ources": 2094,
      "served": 2095,
      "Environment": 2096,
      "bury": 2097,
      "Rowe": 2098,
      "gone": 2099,
      "days": 2100,
      "iii": 2101,
      "Now": 2102,
      "began": 2103,
      "develop": 2104,
      "Ill": 2105,
      "ently": 2106,
      "tem": 2107,
      "ality": 2108,
      "aps": 2109,
      "reven": 2110,
      "board": 2111,
      "94": 2112,
      "Jer": 2113,
      "cis": 2114,
      "royal": 2115,
      "FAX": 2116,
      "Trans": 2117,
      "Glasgow": 2118,
      "within": 2119,
      "Exports": 2120,
      "September": 2121,
      "Minister": 2122,
      "pical": 2123,
      "aken": 2124,
      "UT": 2125,
      "lines": 2126,
      "orning": 2127,
      "Cypr": 2128,
      "refer": 2129,
      "start": 2130,
      "bank": 2131,
      "inde": 2132,
      "81": 2133,
      "vil": 2134,
      "Hel": 2135,
      "LI": 2136,
      "edited": 2137,
      "sey": 2138,
      "American": 2139,
      "wait": 2140,
      "523": 2141,
      "entered": 2142,
      "Atlantic": 2143,
      "gest": 2144,
      "history": 2145,
      "moment": 2146,
      "osp": 2147,
      "Imports": 2148,
      "sister": 2149,
      "stan": 2150,
      "ners": 2151,
      "bridge": 2152,
      "CT": 2153,
      "green": 2154,
      "hu": 2155,
      "oud": 2156,
      "mean": 2157,
      "quite": 2158,
      "Ambass": 2159,
      "Ter": 2160,
      "nar": 2161,
      "order": 2162,
      "vers": 2163,
      "Christian": 2164,
      "vement": 2165,
      "BR": 2166,
      "War": 2167,
      "Exe": 2168,
      "fur": 2169,
      "hen": 2170,
      "som": 2171,
      "coming": 2172,
      "1883": 2173,
      "Ambassador": 2174,
      "dou": 2175,
      "PR": 2176,
      "based": 2177,
      "ences": 2178,
      "Step": 2179,
      "America": 2180,
      "Bir": 2181,
      "fire": 2182,
      "ched": 2183,
      "Han": 2184,
      "Life": 2185,
      "iled": 2186,
      "gether": 2187,
      "Sup": 2188,
      "iland": 2189,
      "giv": 2190,
      "dead": 2191,
      "often": 2192,
      "Lu": 2193,
      "list": 2194,
      "sor": 2195,
      "Capell": 2196,
      "chester": 2197,
      "having": 2198,
      "Central": 2199,
      "Som": 2200,
      "rad": 2201,
      "child": 2202,
      "established": 2203,
      "cried": 2204,
      "1833": 2205,
      "hot": 2206,
      "AE": 2207,
      "Sou": 2208,
      "together": 2209,
      "political": 2210,
      "Eth": 2211,
      "city": 2212,
      "hib": 2213,
      "524": 2214,
      "Cal": 2215,
      "por": 2216,
      "women": 2217,
      "includes": 2218,
      "Airports": 2219,
      "watch": 2220,
      "prime": 2221,
      "1826": 2222,
      "God": 2223,
      "Rich": 2224,
      "1998": 2225,
      "rency": 2226,
      "Robert": 2227,
      "iversity": 2228,
      "ountain": 2229,
      "84": 2230,
      "fac": 2231,
      "quest": 2232,
      "turned": 2233,
      "Lat": 2234,
      "family": 2235,
      "ately": 2236,
      "437": 2237,
      "Ben": 2238,
      "perman": 2239,
      "African": 2240,
      "raz": 2241,
      "Pollution": 2242,
      "stead": 2243,
      "played": 2244,
      "CHAP": 2245,
      "Canada": 2246,
      "anda": 2247,
      "ances": 2248,
      "burgh": 2249,
      "CHAPTER": 2250,
      "Labor": 2251,
      "eder": 2252,
      "87": 2253,
      "itation": 2254,
      "ready": 2255,
      "Mag": 2256,
      "almost": 2257,
      "05": 2258,
      "97": 2259,
      "abo": 2260,
      "north": 2261,
      "World": 2262,
      "Don": 2263,
      "import": 2264,
      "1827": 2265,
      "several": 2266,
      "ges": 2267,
      "ator": 2268,
      "associ": 2269,
      "ournal": 2270,
      "Luc": 2271,
      "living": 2272,
      "wish": 2273,
      "1828": 2274,
      "net": 2275,
      "beg": 2276,
      "need": 2277,
      "Fin": 2278,
      "ream": 2279,
      "Maur": 2280,
      "cies": 2281,
      "hill": 2282,
      "adv": 2283,
      "rote": 2284,
      "bot": 2285,
      "mort": 2286,
      "via": 2287,
      "wife": 2288,
      "icult": 2289,
      "Pa": 2290,
      "hosp": 2291,
      "sim": 2292,
      "uff": 2293,
      "trade": 2294,
      "Inter": 2295,
      "1886": 2296,
      "Congo": 2297,
      "ships": 2298,
      "Oxf": 2299,
      "permanent": 2300,
      "arm": 2301,
      "brought": 2302,
      "cross": 2303,
      "Ab": 2304,
      "Mic": 2305,
      "allow": 2306,
      "copy": 2307,
      "equip": 2308,
      "Str": 2309,
      "anything": 2310,
      "Mary": 2311,
      "tour": 2312,
      "exchange": 2313,
      "super": 2314,
      "95": 2315,
      "blue": 2316,
      "ustrial": 2317,
      "morning": 2318,
      "arable": 2319,
      "def": 2320,
      "iff": 2321,
      "strong": 2322,
      "86": 2323,
      "case": 2324,
      "nic": 2325,
      "Cl": 2326,
      "pot": 2327,
      "Jose": 2328,
      "ixed": 2329,
      "Stephen": 2330,
      "princ": 2331,
      "dred": 2332,
      "1884": 2333,
      "help": 2334,
      "write": 2335,
      "Mart": 2336,
      "Rad": 2337,
      "Queen": 2338,
      "Times": 2339,
      "hind": 2340,
      "300": 2341,
      "wrote": 2342,
      "conf": 2343,
      "1829": 2344,
      "cture": 2345,
      "ancy": 2346,
      "ek": 2347,
      "words": 2348,
      "GRT": 2349,
      "ilt": 2350,
      "process": 2351,
      "1825": 2352,
      "cargo": 2353,
      ".'": 2354,
      "Sing": 2355,
      "stran": 2356,
      "parties": 2357,
      "occup": 2358,
      "Irish": 2359,
      "Royal": 2360,
      "Day": 2361,
      "El": 2362,
      "free": 2363,
      "text": 2364,
      "imports": 2365,
      "flu": 2366,
      "Pan": 2367,
      "eth": 2368,
      "ience": 2369,
      "langu": 2370,
      "mad": 2371,
      "reme": 2372,
      "worth": 2373,
      "AC": 2374,
      "lower": 2375,
      "hospital": 2376,
      "Domin": 2377,
      "reach": 2378,
      "With": 2379,
      "speak": 2380,
      "edit": 2381,
      "rael": 2382,
      "ump": 2383,
      "1891": 2384,
      "trad": 2385,
      "1885": 2386,
      "type": 2387,
      "following": 2388,
      "ches": 2389,
      "chant": 2390,
      "chanc": 2391,
      "itted": 2392,
      "slight": 2393,
      "month": 2394,
      "Em": 2395,
      "publ": 2396,
      "stood": 2397,
      "equipment": 2398,
      "squ": 2399,
      "Ba": 2400,
      "Paris": 2401,
      "Hol": 2402,
      "hope": 2403,
      "whole": 2404,
      "mem": 2405,
      "signed": 2406,
      "cot": 2407,
      "pie": 2408,
      "yd": 2409,
      "ronic": 2410,
      "crops": 2411,
      "Stand": 2412,
      "Western": 2413,
      "Cyprus": 2414,
      "fig": 2415,
      "test": 2416,
      "particular": 2417,
      "lex": 2418,
      "idence": 2419,
      "gypt": 2420,
      "representation": 2421,
      "gress": 2422,
      "dang": 2423,
      "gate": 2424,
      "tar": 2425,
      "sues": 2426,
      "reser": 2427,
      "difference": 2428,
      "Egypt": 2429,
      "Ang": 2430,
      "blo": 2431,
      "cus": 2432,
      "va": 2433,
      "thee": 2434,
      "rup": 2435,
      "territorial": 2436,
      "post": 2437,
      "south": 2438,
      "spo": 2439,
      "stone": 2440,
      "Mus": 2441,
      "onia": 2442,
      "Great": 2443,
      "constru": 2444,
      "acy": 2445,
      "professor": 2446,
      "GA": 2447,
      "Tim": 2448,
      "formation": 2449,
      "pleas": 2450,
      "mis": 2451,
      "below": 2452,
      "Tele": 2453,
      "income": 2454,
      "ternal": 2455,
      "Portug": 2456,
      "Gren": 2457,
      "past": 2458,
      "coal": 2459,
      "Israel": 2460,
      "hundred": 2461,
      "colon": 2462,
      "prison": 2463,
      "hair": 2464,
      "paper": 2465,
      "EU": 2466,
      "defin": 2467,
      "society": 2468,
      "lin": 2469,
      "cannot": 2470,
      "Manpower": 2471,
      "traff": 2472,
      "Des": 2473,
      "felt": 2474,
      "sold": 2475,
      "cho": 2476,
      "obser": 2477,
      "Norway": 2478,
      "region": 2479,
      "Edinb": 2480,
      "pict": 2481,
      "express": 2482,
      "forest": 2483,
      "ya": 2484,
      "feet": 2485,
      "office": 2486,
      "tle": 2487,
      "resources": 2488,
      "Gen": 2489,
      "Mer": 2490,
      "Qu": 2491,
      "aland": 2492,
      "decl": 2493,
      "1824": 2494,
      "Social": 2495,
      "wall": 2496,
      "behind": 2497,
      "swe": 2498,
      "slow": 2499,
      "ows": 2500,
      "Ha": 2501,
      "Mat": 2502,
      "itime": 2503,
      "termin": 2504,
      "voice": 2505,
      "Time": 2506,
      "constitution": 2507,
      "ots": 2508,
      "lady": 2509,
      "aters": 2510,
      "Dis": 2511,
      "bit": 2512,
      "cit": 2513,
      "others": 2514,
      "Arch": 2515,
      "revenues": 2516,
      "Area": 2517,
      "rates": 2518,
      "uda": 2519,
      "third": 2520,
      "Antarctic": 2521,
      "geograph": 2522,
      "quar": 2523,
      "iction": 2524,
      "excl": 2525,
      "ically": 2526,
      "wonder": 2527,
      "arms": 2528,
      "lied": 2529,
      "Sunday": 2530,
      "wave": 2531,
      "Hanmer": 2532,
      "cas": 2533,
      "ination": 2534,
      "expect": 2535,
      "Vir": 2536,
      "ellite": 2537,
      "distribut": 2538,
      "icked": 2539,
      "commod": 2540,
      "FTU": 2541,
      "Pope": 2542,
      "San": 2543,
      "enter": 2544,
      "tru": 2545,
      "1887": 2546,
      "governor": 2547,
      "barr": 2548,
      "received": 2549,
      "surge": 2550,
      "ufact": 2551,
      "exp": 2552,
      "1820": 2553,
      "empt": 2554,
      "iddle": 2555,
      "Denmark": 2556,
      "dated": 2557,
      "aff": 2558,
      "Jane": 2559,
      "Braz": 2560,
      "appeared": 2561,
      "herself": 2562,
      "Belg": 2563,
      "Wal": 2564,
      "wan": 2565,
      "unpaved": 2566,
      "vey": 2567,
      "ipl": 2568,
      "park": 2569,
      "Edward": 2570,
      "ker": 2571,
      "inery": 2572,
      "laugh": 2573,
      "1821": 2574,
      "company": 2575,
      "High": 2576,
      "comes": 2577,
      "1890": 2578,
      "athol": 2579,
      "ruary": 2580,
      "February": 2581,
      "cabinet": 2582,
      "bal": 2583,
      "whom": 2584,
      "uls": 2585,
      "employment": 2586,
      "oon": 2587,
      "taken": 2588,
      "ared": 2589,
      "aries": 2590,
      "ians": 2591,
      "marine": 2592,
      "ambia": 2593,
      "books": 2594,
      "dest": 2595,
      "towards": 2596,
      "race": 2597,
      "exhib": 2598,
      "ends": 2599,
      "machinery": 2600,
      "cel": 2601,
      "non": 2602,
      "leaders": 2603,
      "IMF": 2604,
      "CE": 2605,
      "Ze": 2606,
      "oft": 2607,
      "ending": 2608,
      "cler": 2609,
      "1888": 2610,
      "letter": 2611,
      "Martin": 2612,
      "Uk": 2613,
      "hydro": 2614,
      "unications": 2615,
      "Edinburgh": 2616,
      "moved": 2617,
      "satellite": 2618,
      "Economy": 2619,
      "Supreme": 2620,
      "scr": 2621,
      "Dor": 2622,
      "crow": 2623,
      "chang": 2624,
      "rail": 2625,
      "illed": 2626,
      "manufact": 2627,
      "Brazil": 2628,
      "care": 2629,
      "oa": 2630,
      "obl": 2631,
      "rom": 2632,
      "Swed": 2633,
      "bear": 2634,
      "Independence": 2635,
      "Oxford": 2636,
      "pay": 2637,
      "conne": 2638,
      "1822": 2639,
      "carri": 2640,
      "broadcast": 2641,
      "pal": 2642,
      "page": 2643,
      "univers": 2644,
      "rather": 2645,
      "Isl": 2646,
      "gentleman": 2647,
      "Zealand": 2648,
      "big": 2649,
      "table": 2650,
      "arr": 2651,
      "however": 2652,
      "iplom": 2653,
      "1889": 2654,
      "rev": 2655,
      "gram": 2656,
      "princip": 2657,
      "Pip": 2658,
      "appro": 2659,
      "phys": 2660,
      "ahead": 2661,
      "amber": 2662,
      "International": 2663,
      "Mex": 2664,
      "ging": 2665,
      "1815": 2666,
      "cket": 2667,
      "Force": 2668,
      "observer": 2669,
      "returned": 2670,
      "Paul": 2671,
      "Geography": 2672,
      "91": 2673,
      "ij": 2674,
      "Constitution": 2675,
      "elephones": 2676,
      "sound": 2677,
      "etimes": 2678,
      "lost": 2679,
      "cks": 2680,
      "success": 2681,
      "NE": 2682,
      "repe": 2683,
      "acqu": 2684,
      "aves": 2685,
      "Political": 2686,
      "steam": 2687,
      "ministrative": 2688,
      "Dep": 2689,
      "dependent": 2690,
      "passed": 2691,
      "atholic": 2692,
      "gard": 2693,
      "divis": 2694,
      "covered": 2695,
      "music": 2696,
      "FM": 2697,
      "--": 2698,
      "step": 2699,
      "apore": 2700,
      "Georg": 2701,
      "Standard": 2702,
      "600": 2703,
      "assess": 2704,
      "Greece": 2705,
      "pretty": 2706,
      "Liter": 2707,
      "hum": 2708,
      "thous": 2709,
      "early": 2710,
      "invest": 2711,
      "emen": 2712,
      "Turkey": 2713,
      "barrister": 2714,
      "400": 2715,
      "Spe": 2716,
      "monarch": 2717,
      "chemicals": 2718,
      "Let": 2719,
      "1818": 2720,
      "Indon": 2721,
      "96": 2722,
      "Mol": 2723,
      "daugh": 2724,
      "ls": 2725,
      "late": 2726,
      "oth": 2727,
      "meet": 2728,
      "1823": 2729,
      "jective": 2730,
      "engine": 2731,
      "AT": 2732,
      "Here": 2733,
      "Tom": 2734,
      "independence": 2735,
      "92": 2736,
      "Ahab": 2737,
      "iment": 2738,
      "manag": 2739,
      "secretary": 2740,
      "proper": 2741,
      "eye": 2742,
      "haps": 2743,
      "tank": 2744,
      "elig": 2745,
      "spir": 2746,
      "descr": 2747,
      "reason": 2748,
      "iplomatic": 2749,
      "Bank": 2750,
      "93": 2751,
      "tic": 2752,
      "See": 2753,
      "Joseph": 2754,
      "Singapore": 2755,
      "ingly": 2756,
      "partners": 2757,
      "believe": 2758,
      "station": 2759,
      "urer": 2760,
      "century": 2761,
      "Belgium": 2762,
      "pain": 2763,
      "oir": 2764,
      "assy": 2765,
      "universal": 2766,
      "thousand": 2767,
      "dem": 2768,
      "mountain": 2769,
      "selves": 2770,
      "interest": 2771,
      "ears": 2772,
      "fee": 2773,
      "claims": 2774,
      "Good": 2775,
      "Pak": 2776,
      "yellow": 2777,
      "anon": 2778,
      "ency": 2779,
      "ables": 2780,
      "chairman": 2781,
      "BRD": 2782,
      "fuel": 2783,
      "beaut": 2784,
      "sit": 2785,
      "wich": 2786,
      "flag": 2787,
      "subject": 2788,
      "sal": 2789,
      "ension": 2790,
      "Tha": 2791,
      "army": 2792,
      "geographic": 2793,
      "ball": 2794,
      "sus": 2795,
      "thew": 2796,
      "ource": 2797,
      "compar": 2798,
      "Malays": 2799,
      "audi": 2800,
      "Televis": 2801,
      "kept": 2802,
      "tection": 2803,
      "Pl": 2804,
      "matter": 2805,
      "ameral": 2806,
      "ghan": 2807,
      "aval": 2808,
      "ratified": 2809,
      "agreements": 2810,
      "surgeon": 2811,
      "attle": 2812,
      "iption": 2813,
      "Bol": 2814,
      "aj": 2815,
      "commodities": 2816,
      "council": 2817,
      "special": 2818,
      "THE": 2819,
      "ertification": 2820,
      "AL": 2821,
      "CS": 2822,
      "Sud": 2823,
      "ev": 2824,
      "ler": 2825,
      "treat": 2826,
      "bey": 2827,
      "Diplomatic": 2828,
      "elf": 2829,
      "assessment": 2830,
      "Vin": 2831,
      "bour": 2832,
      "ring": 2833,
      "accept": 2834,
      "Telephones": 2835,
      "consul": 2836,
      "occas": 2837,
      ".]": 2838,
      "fit": 2839,
      "purch": 2840,
      "ayer": 2841,
      "shortwave": 2842,
      "Virgin": 2843,
      "01": 2844,
      "800": 2845,
      "IR": 2846,
      "ipe": 2847,
      "1819": 2848,
      "contribut": 2849,
      "UTC": 2850,
      "UR": 2851,
      "firm": 2852,
      "oblig": 2853,
      "Mexico": 2854,
      "Pakistan": 2855,
      "ned": 2856,
      "sort": 2857,
      "heav": 2858,
      "print": 2859,
      "updated": 2860,
      "standing": 2861,
      "sequ": 2862,
      "Afghan": 2863,
      "Tai": 2864,
      "WI": 2865,
      "cul": 2866,
      "wid": 2867,
      "igned": 2868,
      "opened": 2869,
      "direct": 2870,
      "human": 2871,
      "Sweden": 2872,
      "tanker": 2873,
      "bes": 2874,
      "1816": 2875,
      "lying": 2876,
      "distr": 2877,
      "definition": 2878,
      "Old": 2879,
      "making": 2880,
      "writ": 2881,
      "ita": 2882,
      "least": 2883,
      "why": 2884,
      "dec": 2885,
      "consu": 2886,
      "Currency": 2887,
      "dam": 2888,
      "wise": 2889,
      "ady": 2890,
      "Argent": 2891,
      "flow": 2892,
      "rub": 2893,
      "Richard": 2894,
      "03": 2895,
      "One": 2896,
      "ras": 2897,
      "lies": 2898,
      "uge": 2899,
      "founded": 2900,
      "BE": 2901,
      "SE": 2902,
      "noun": 2903,
      "adjective": 2904,
      "lier": 2905,
      "build": 2906,
      "effect": 2907,
      "Sa": 2908,
      "cern": 2909,
      "itting": 2910,
      "given": 2911,
      "Panama": 2912,
      "Indonesia": 2913,
      "raine": 2914,
      "contain": 2915,
      "Manchester": 2916,
      "continu": 2917,
      "migrant": 2918,
      "rig": 2919,
      "access": 2920,
      "ICC": 2921,
      "embassy": 2922,
      "Long": 2923,
      "tou": 2924,
      "else": 2925,
      "slightly": 2926,
      "Rome": 2927,
      "iding": 2928,
      "deep": 2929,
      "ount": 2930,
      "break": 2931,
      "leader": 2932,
      "continent": 2933,
      "anish": 2934,
      "1892": 2935,
      "Sen": 2936,
      "ani": 2937,
      "supp": 2938,
      "bul": 2939,
      "exper": 2940,
      "itions": 2941,
      "====================================": 2942,
      "====================================================================": 2943,
      "succeed": 2944,
      "Matthew": 2945,
      "Ken": 2946,
      "fell": 2947,
      "pen": 2948,
      "tel": 2949,
      "ati": 2950,
      "really": 2951,
      "sugar": 2952,
      "Carib": 2953,
      "Ukraine": 2954,
      "Pap": 2955,
      "kn": 2956,
      "mor": 2957,
      "ush": 2958,
      "avail": 2959,
      "Wood": 2960,
      "labor": 2961,
      "1814": 2962,
      "itional": 2963,
      "Fir": 2964,
      "nia": 2965,
      "von": 2966,
      "stor": 2967,
      "union": 2968,
      "%;": 2969,
      "04": 2970,
      "reck": 2971,
      "activ": 2972,
      "electronic": 2973,
      "Me": 2974,
      "enger": 2975,
      "true": 2976,
      "provinc": 2977,
      "above": 2978,
      "Malaysia": 2979,
      "Syr": 2980,
      "source": 2981,
      "acro": 2982,
      "period": 2983,
      "Serb": 2984,
      "Sol": 2985,
      "sight": 2986,
      "ont": 2987,
      "ishop": 2988,
      "Kong": 2989,
      "1817": 2990,
      "mostly": 2991,
      "market": 2992,
      "Res": 2993,
      "oto": 2994,
      "size": 2995,
      "leave": 2996,
      "formed": 2997,
      "whose": 2998,
      "couldn": 2999,
      "agricultural": 3000,
      "figure": 3001,
      "Catholic": 3002,
      "ola": 3003,
      "parliament": 3004,
      "438": 3005,
      "Hong": 3006,
      "UPU": 3007,
      "depart": 3008,
      "ology": 3009,
      "06": 3010,
      "gall": 3011,
      "bean": 3012,
      "glass": 3013,
      "======================================================================": 3014,
      "Pat": 3015,
      "ara": 3016,
      "alone": 3017,
      "stra": 3018,
      "acter": 3019,
      "runways": 3020,
      "consider": 3021,
      "mine": 3022,
      "ino": 3023,
      "racy": 3024,
      "Croat": 3025,
      "Diana": 3026,
      "ying": 3027,
      "ala": 3028,
      "alth": 3029,
      "states": 3030,
      "Found": 3031,
      "Ira": 3032,
      "bow": 3033,
      "bra": 3034,
      "tim": 3035,
      "exam": 3036,
      "cold": 3037,
      "Taiwan": 3038,
      "First": 3039,
      "icar": 3040,
      "boundary": 3041,
      "sometimes": 3042,
      "ulsory": 3043,
      "agu": 3044,
      "remains": 3045,
      "Economic": 3046,
      "Bos": 3047,
      "Far": 3048,
      "dden": 3049,
      "ena": 3050,
      "utes": 3051,
      "explo": 3052,
      "Enter": 3053,
      "compulsory": 3054,
      "Philipp": 3055,
      "Portugal": 3056,
      "Of": 3057,
      "ICA": 3058,
      "Samoa": 3059,
      "Vincent": 3060,
      "fert": 3061,
      "Prime": 3062,
      "support": 3063,
      "Caribbean": 3064,
      "Hav": 3065,
      "PS": 3066,
      "lik": 3067,
      "published": 3068,
      "General": 3069,
      "Iraq": 3070,
      "jan": 3071,
      "ils": 3072,
      "iously": 3073,
      "After": 3074,
      "construction": 3075,
      "spr": 3076,
      "shar": 3077,
      "wouldn": 3078,
      "singular": 3079,
      "din": 3080,
      "mic": 3081,
      "mob": 3082,
      "Organ": 3083,
      "Viet": 3084,
      "admir": 3085,
      "debt": 3086,
      "Who": 3087,
      "partner": 3088,
      "Georgia": 3089,
      "Thailand": 3090,
      "Saudi": 3091,
      "mid": 3092,
      "castle": 3093,
      "Jud": 3094,
      "Lor": 3095,
      "ios": 3096,
      "Darcy": 3097,
      "consumer": 3098,
      "except": 3099,
      "pool": 3100,
      "bring": 3101,
      "Princ": 3102,
      "Bul": 3103,
      "Jim": 3104,
      "mat": 3105,
      "mur": 3106,
      "wild": 3107,
      "ander": 3108,
      "reform": 3109,
      "usive": 3110,
      "laws": 3111,
      "cru": 3112,
      "iqu": 3113,
      "cher": 3114,
      "means": 3115,
      "iving": 3116,
      "areas": 3117,
      "Poland": 3118,
      "tropical": 3119,
      "sleep": 3120,
      "question": 3121,
      "Argentina": 3122,
      "ST": 3123,
      "fixed": 3124,
      "iest": 3125,
      "atives": 3126,
      "lected": 3127,
      "sudden": 3128,
      "icking": 3129,
      "temper": 3130,
      "Vietnam": 3131,
      "DA": 3132,
      "Iran": 3133,
      "Just": 3134,
      "cost": 3135,
      "Book": 3136,
      "possible": 3137,
      "Journal": 3138,
      "gn": 3139,
      "prices": 3140,
      "Swit": 3141,
      "Mas": 3142,
      "iop": 3143,
      "ably": 3144,
      "manner": 3145,
      "zerland": 3146,
      "Surrey": 3147,
      "Southern": 3148,
      "Switzerland": 3149,
      "Kir": 3150,
      "hat": 3151,
      "parts": 3152,
      "Colomb": 3153,
      "Arabia": 3154,
      "private": 3155,
      "available": 3156,
      "Wm": 3157,
      "Where": 3158,
      "Cape": 3159,
      "shore": 3160,
      "Francis": 3161,
      "Peru": 3162,
      "answer": 3163,
      "Je": 3164,
      "Ke": 3165,
      "gain": 3166,
      "akh": 3167,
      "offic": 3168,
      "Movement": 3169,
      "Moroc": 3170,
      "isto": 3171,
      "extrem": 3172,
      "Ethiop": 3173,
      "Sudan": 3174,
      "Cr": 3175,
      "ILO": 3176,
      "assistant": 3177,
      "whether": 3178,
      "daughter": 3179,
      "cry": 3180,
      "sed": 3181,
      "goods": 3182,
      "indeed": 3183,
      "bene": 3184,
      "lot": 3185,
      "tre": 3186,
      "astern": 3187,
      "stay": 3188,
      "rap": 3189,
      "ively": 3190,
      "Chile": 3191,
      "window": 3192,
      "chancery": 3193,
      "700": 3194,
      "clear": 3195,
      "miles": 3196,
      "deg": 3197,
      "Northern": 3198,
      "borne": 3199,
      "cutive": 3200,
      "oe": 3201,
      "vak": 3202,
      "1810": 3203,
      "raft": 3204,
      "OM": 3205,
      "Vene": 3206,
      "onet": 3207,
      "ESCO": 3208,
      "dry": 3209,
      "gers": 3210,
      "aling": 3211,
      "itude": 3212,
      "remember": 3213,
      "concern": 3214,
      "haz": 3215,
      "territory": 3216,
      "Some": 3217,
      "cum": 3218,
      "sn": 3219,
      "tocol": 3220,
      "lived": 3221,
      "trou": 3222,
      "putes": 3223,
      "legislative": 3224,
      "Ele": 3225,
      "fear": 3226,
      "jur": 3227,
      "peace": 3228,
      "intro": 3229,
      "legal": 3230,
      "02": 3231,
      "schol": 3232,
      "rupt": 3233,
      "Venez": 3234,
      "RE": 3235,
      "forth": 3236,
      "Marine": 3237,
      "ensign": 3238,
      "contro": 3239,
      "introdu": 3240,
      "bai": 3241,
      "vill": 3242,
      "aker": 3243,
      "Protocol": 3244,
      "flation": 3245,
      "laid": 3246,
      "Azer": 3247,
      "bas": 3248,
      "fif": 3249,
      "class": 3250,
      "Austria": 3251,
      "Venezuel": 3252,
      "Gab": 3253,
      "nature": 3254,
      "Asia": 3255,
      "close": 3256,
      "locked": 3257,
      "quick": 3258,
      "udget": 3259,
      "ancial": 3260,
      "IOC": 3261,
      "Nigeria": 3262,
      "mortality": 3263,
      "Dav": 3264,
      "commer": 3265,
      "Armen": 3266,
      "pollution": 3267,
      "hoist": 3268,
      "Ho": 3269,
      "Tun": 3270,
      "portation": 3271,
      "across": 3272,
      "lives": 3273,
      "perhaps": 3274,
      "tained": 3275,
      "evening": 3276,
      "ax": 3277,
      "yard": 3278,
      "inn": 3279,
      "1811": 3280,
      "ordan": 3281,
      "Philippines": 3282,
      "hus": 3283,
      "anz": 3284,
      "Sloven": 3285,
      "Afghanistan": 3286,
      "Foundation": 3287,
      "cand": 3288,
      "song": 3289,
      "ony": 3290,
      "begin": 3291,
      "endar": 3292,
      "UNESCO": 3293,
      "1809": 3294,
      "republic": 3295,
      "City": 3296,
      "Ku": 3297,
      "fine": 3298,
      "ius": 3299,
      "pire": 3300,
      "anim": 3301,
      "1812": 3302,
      "pected": 3303,
      "iodiversity": 3304,
      "Alex": 3305,
      "Bang": 3306,
      "Alb": 3307,
      "suppose": 3308,
      "Benn": 3309,
      "othy": 3310,
      "visit": 3311,
      "Forces": 3312,
      "claimed": 3313,
      "cellular": 3314,
      "textiles": 3315,
      "sweet": 3316,
      "1000": 3317,
      "condu": 3318,
      "plan": 3319,
      "built": 3320,
      "valu": 3321,
      "Hu": 3322,
      "WHO": 3323,
      "ability": 3324,
      "libr": 3325,
      "Leg": 3326,
      "Boliv": 3327,
      "Cor": 3328,
      "vation": 3329,
      "seven": 3330,
      "separ": 3331,
      "imag": 3332,
      "nearly": 3333,
      "Interpol": 3334,
      "Venezuela": 3335,
      "ITU": 3336,
      "pil": 3337,
      "star": 3338,
      "stuff": 3339,
      "tery": 3340,
      "narrow": 3341,
      "Finland": 3342,
      "Ham": 3343,
      "pover": 3344,
      "diction": 3345,
      "Malta": 3346,
      "ological": 3347,
      "Azerbai": 3348,
      "Leb": 3349,
      "Lady": 3350,
      "vely": 3351,
      "liance": 3352,
      "ella": 3353,
      "perm": 3354,
      "largest": 3355,
      "host": 3356,
      "solicit": 3357,
      "radio": 3358,
      "Hist": 3359,
      "IE": 3360,
      "PA": 3361,
      "Vict": 3362,
      "inst": 3363,
      "queen": 3364,
      "wanted": 3365,
      "modern": 3366,
      "important": 3367,
      "Syria": 3368,
      "Van": 3369,
      "WTO": 3370,
      "shel": 3371,
      "UNCT": 3372,
      "fishing": 3373,
      "season": 3374,
      "exclusive": 3375,
      "Colombia": 3376,
      "Jordan": 3377,
      "Ky": 3378,
      "fant": 3379,
      "graph": 3380,
      "pressure": 3381,
      "ING": 3382,
      "cially": 3383,
      "UNCTAD": 3384,
      "Up": 3385,
      "wenty": 3386,
      "Cong": 3387,
      "Cze": 3388,
      "SON": 3389,
      "vell": 3390,
      "level": 3391,
      "grad": 3392,
      "itself": 3393,
      "Czech": 3394,
      "eight": 3395,
      "mal": 3396,
      "forces": 3397,
      "talk": 3398,
      "Protection": 3399,
      "financial": 3400,
      "Service": 3401,
      "Gib": 3402,
      "RM": 3403,
      "kes": 3404,
      "Prov": 3405,
      "ICAO": 3406,
      "Bennet": 3407,
      "Biodiversity": 3408,
      "espe": 3409,
      "owned": 3410,
      "limited": 3411,
      "charge": 3412,
      "Slovak": 3413,
      "original": 3414,
      "erick": 3415,
      "iscal": 3416,
      "dog": 3417,
      "FAO": 3418,
      "Camer": 3419,
      "corner": 3420,
      "editor": 3421,
      "ME": 3422,
      "RCS": 3423,
      "isher": 3424,
      "passenger": 3425,
      "Come": 3426,
      "pound": 3427,
      "ederal": 3428,
      "ested": 3429,
      "external": 3430,
      "Moz": 3431,
      "Yemen": 3432,
      "winter": 3433,
      "iful": 3434,
      "fool": 3435,
      "IFRCS": 3436,
      "horse": 3437,
      "OPC": 3438,
      "WMO": 3439,
      "knight": 3440,
      "1995": 3441,
      "Morocco": 3442,
      "OPCW": 3443,
      "IMO": 3444,
      "IBRD": 3445,
      "fing": 3446,
      "van": 3447,
      "terr": 3448,
      "equal": 3449,
      "language": 3450,
      "Muslim": 3451,
      "Dorothy": 3452,
      ".-": 3453,
      "Ozone": 3454,
      "Pet": 3455,
      "bishop": 3456,
      "compan": 3457,
      "Cambod": 3458,
      "respons": 3459,
      "months": 3460,
      "Azerbaijan": 3461,
      "Layer": 3462,
      "Kingdom": 3463,
      "friends": 3464,
      "continental": 3465,
      "especially": 3466,
      "Feder": 3467,
      "Mem": 3468,
      "wide": 3469,
      "thus": 3470,
      "ili": 3471,
      "unk": 3472,
      "plac": 3473,
      "Herbert": 3474,
      "Black": 3475,
      "clerk": 3476,
      "Eston": 3477,
      "miss": 3478,
      "plus": 3479,
      "ached": 3480,
      "Ethiopia": 3481,
      "IT": 3482,
      "yes": 3483,
      "1813": 3484,
      "illy": 3485,
      "neigh": 3486,
      "anted": 3487,
      "consulate": 3488,
      "poverty": 3489,
      "NW": 3490,
      "oes": 3491,
      "impro": 3492,
      "prim": 3493,
      "tourism": 3494,
      "Bal": 3495,
      "fre": 3496,
      "taking": 3497,
      "arus": 3498,
      "bek": 3499,
      "ette": 3500,
      "Romania": 3501,
      "WIPO": 3502,
      "Lorry": 3503,
      "Agr": 3504,
      "Gard": 3505,
      "Hung": 3506,
      "either": 3507,
      "1807": 3508,
      "Alger": 3509,
      "majority": 3510,
      "mobile": 3511,
      "DB": 3512,
      "tried": 3513,
      "fresh": 3514,
      "minster": 3515,
      "register": 3516,
      "Liberia": 3517,
      "Bulgar": 3518,
      "120": 3519,
      "Cub": 3520,
      "ata": 3521,
      "ising": 3522,
      "coat": 3523,
      "produced": 3524,
      "incre": 3525,
      "ICRM": 3526,
      "Coast": 3527,
      "joy": 3528,
      "Desertification": 3529,
      "BO": 3530,
      "imp": 3531,
      "share": 3532,
      "Marshall": 3533,
      "capita": 3534,
      "answered": 3535,
      "Kitt": 3536,
      "Lou": 3537,
      "ben": 3538,
      "ds": 3539,
      "gle": 3540,
      "emy": 3541,
      "sole": 3542,
      "Church": 3543,
      "themselves": 3544,
      "scholar": 3545,
      "Bot": 3546,
      "Kaz": 3547,
      "Liver": 3548,
      "cip": 3549,
      "mot": 3550,
      "warn": 3551,
      "husband": 3552,
      "900": 3553,
      "ech": 3554,
      "fun": 3555,
      "fav": 3556,
      "heavy": 3557,
      "White": 3558,
      "drug": 3559,
      "everything": 3560,
      "commanded": 3561,
      "Lith": 3562,
      "MS": 3563,
      "tin": 3564,
      "ining": 3565,
      "atory": 3566,
      "eds": 3567,
      "Chap": 3568,
      "IFC": 3569,
      "creat": 3570,
      "ww": 3571,
      "irt": 3572,
      "industrial": 3573,
      "calendar": 3574,
      "Country": 3575,
      "Commun": 3576,
      "blood": 3577,
      "Ver": 3578,
      "ease": 3579,
      "commission": 3580,
      "MAC": 3581,
      "Scotland": 3582,
      "Beng": 3583,
      "Wend": 3584,
      "instru": 3585,
      "iday": 3586,
      "Collier": 3587,
      "exhibited": 3588,
      "Liverpool": 3589,
      "Equ": 3590,
      "Sene": 3591,
      "rul": 3592,
      "oria": 3593,
      "ISO": 3594,
      "started": 3595,
      "Hungary": 3596,
      "Wendy": 3597,
      "bell": 3598,
      "1808": 3599,
      "Lithu": 3600,
      "DE": 3601,
      "Dun": 3602,
      "Jack": 3603,
      "Kent": 3604,
      "da": 3605,
      "wear": 3606,
      "ention": 3607,
      "fru": 3608,
      "astes": 3609,
      "ials": 3610,
      "Guy": 3611,
      "Parliament": 3612,
      "Ly": 3613,
      "paint": 3614,
      "Ste": 3615,
      "boys": 3616,
      "ensive": 3617,
      "particip": 3618,
      "Hond": 3619,
      "OF": 3620,
      "necess": 3621,
      "rowave": 3622,
      "further": 3623,
      "Hondur": 3624,
      "Ivo": 3625,
      "Jama": 3626,
      "2007": 3627,
      "ustries": 3628,
      "cloth": 3629,
      "Pen": 3630,
      "Theob": 3631,
      "Intel": 3632,
      "due": 3633,
      "1893": 3634,
      "raltar": 3635,
      "viol": 3636,
      "Baham": 3637,
      "Croatia": 3638,
      "Gibraltar": 3639,
      "Bengal": 3640,
      "Theobald": 3641,
      "Bing": 3642,
      "River": 3643,
      "uer": 3644,
      "Isle": 3645,
      "ambique": 3646,
      "IDO": 3647,
      "Kenya": 3648,
      "Cameroon": 3649,
      "atem": 3650,
      "resol": 3651,
      "sett": 3652,
      "structure": 3653,
      "judge": 3654,
      "processing": 3655,
      "invent": 3656,
      "oul": 3657,
      "proble": 3658,
      "polic": 3659,
      "Spanish": 3660,
      "boundaries": 3661,
      "juris": 3662,
      "Icel": 3663,
      "Nam": 3664,
      "wick": 3665,
      "offee": 3666,
      "ems": 3667,
      "joined": 3668,
      "Serbia": 3669,
      "Bosnia": 3670,
      "Kazakh": 3671,
      "WCO": 3672,
      "ost": 3673,
      "reco": 3674,
      "uty": 3675,
      "satis": 3676,
      "honour": 3677,
      "different": 3678,
      "pictures": 3679,
      "Intelsat": 3680,
      "Langu": 3681,
      "mater": 3682,
      "mailing": 3683,
      "saying": 3684,
      "ilities": 3685,
      "UNIDO": 3686,
      "borough": 3687,
      "Senegal": 3688,
      "Water": 3689,
      "pic": 3690,
      "ardous": 3691,
      "glad": 3692,
      "medi": 3693,
      "eases": 3694,
      "respond": 3695,
      "Senate": 3696,
      "succeeded": 3697,
      "Dj": 3698,
      "Haz": 3699,
      "hang": 3700,
      "ored": 3701,
      "oup": 3702,
      "idad": 3703,
      "150": 3704,
      "diseases": 3705,
      "gener": 3706,
      "ugees": 3707,
      "Cambodia": 3708,
      "Iceland": 3709,
      "Bah": 3710,
      "Sm": 3711,
      "iber": 3712,
      "kmen": 3713,
      "respect": 3714,
      "colour": 3715,
      "Andrew": 3716,
      "Grenad": 3717,
      "Pers": 3718,
      "cable": 3719,
      "cens": 3720,
      "FAD": 3721,
      "Cote": 3722,
      "OS": 3723,
      "Red": 3724,
      "utter": 3725,
      "pray": 3726,
      "hael": 3727,
      "Guatem": 3728,
      "IDA": 3729,
      "Belarus": 3730,
      "collection": 3731,
      "MIGA": 3732,
      "Latvia": 3733,
      "square": 3734,
      "Slovakia": 3735,
      "Ecu": 3736,
      "Mod": 3737,
      "Maced": 3738,
      "issues": 3739,
      "asing": 3740,
      "ching": 3741,
      "lod": 3742,
      "perfect": 3743,
      "Mozambique": 3744,
      "Back": 3745,
      "WT": 3746,
      "bi": 3747,
      "twenty": 3748,
      "ift": 3749,
      "1991": 3750,
      "Endang": 3751,
      "1804": 3752,
      "Greek": 3753,
      "Species": 3754,
      "Ivoire": 3755,
      "Endangered": 3756,
      "Ah": 3757,
      "meas": 3758,
      "news": 3759,
      "getting": 3760,
      "Salv": 3761,
      "development": 3762,
      "divisions": 3763,
      "microwave": 3764,
      "Mong": 3765,
      "aver": 3766,
      "uous": 3767,
      "week": 3768,
      "therefore": 3769,
      "minutes": 3770,
      "tax": 3771,
      "Liby": 3772,
      "possess": 3773,
      "various": 3774,
      "Lebanon": 3775,
      "Agricult": 3776,
      "Uz": 3777,
      "east": 3778,
      "Star": 3779,
      "1806": 3780,
      "ladesh": 3781,
      "110": 3782,
      "Uru": 3783,
      "atar": 3784,
      "arily": 3785,
      "resided": 3786,
      "regular": 3787,
      "guay": 3788,
      "Captain": 3789,
      "relig": 3790,
      "Antig": 3791,
      "Cambridge": 3792,
      "description": 3793,
      "Uruguay": 3794,
      "Chad": 3795,
      "Fred": 3796,
      "IFAD": 3797,
      "MAR": 3798,
      "PH": 3799,
      "Wastes": 3800,
      "dig": 3801,
      "lan": 3802,
      "pan": 3803,
      "theast": 3804,
      "grand": 3805,
      "izon": 3806,
      "Army": 3807,
      "relay": 3808,
      "Bolivia": 3809,
      "Bulgaria": 3810,
      "Kazakhstan": 3811,
      "Aber": 3812,
      "FY": 3813,
      "eper": 3814,
      "mist": 3815,
      "ourg": 3816,
      "using": 3817,
      "sail": 3818,
      "club": 3819,
      "center": 3820,
      "yourself": 3821,
      "carried": 3822,
      "Westminster": 3823,
      "Burma": 3824,
      "happy": 3825,
      "Estonia": 3826,
      "Bahamas": 3827,
      "Grenadines": 3828,
      "Les": 3829,
      "Note": 3830,
      "Tro": 3831,
      "pg": 3832,
      "veget": 3833,
      "quiet": 3834,
      "persons": 3835,
      "Slovenia": 3836,
      "Bangladesh": 3837,
      "Honduras": 3838,
      "coffee": 3839,
      "ender": 3840,
      "umb": 3841,
      "surpr": 3842,
      "Lux": 3843,
      "citiz": 3844,
      "Jamaica": 3845,
      "Hazardous": 3846,
      "Ecuador": 3847,
      "tele": 3848,
      "atorial": 3849,
      "bled": 3850,
      "idea": 3851,
      "increas": 3852,
      "spec": 3853,
      "breath": 3854,
      "Algeria": 3855,
      "Salvador": 3856,
      "Uzbek": 3857,
      "KE": 3858,
      "Tob": 3859,
      "bic": 3860,
      "cult": 3861,
      "atu": 3862,
      "apt": 3863,
      "artic": 3864,
      "struck": 3865,
      "copyright": 3866,
      "Mongol": 3867,
      "Fij": 3868,
      "Zim": 3869,
      "liter": 3870,
      "eness": 3871,
      "adm": 3872,
      "adel": 3873,
      "rose": 3874,
      "selected": 3875,
      "agas": 3876,
      "gov": 3877,
      "ips": 3878,
      "NAM": 3879,
      "bright": 3880,
      "preced": 3881,
      "medical": 3882,
      "group": 3883,
      "Corn": 3884,
      "comb": 3885,
      "soil": 3886,
      "Death": 3887,
      "Belize": 3888,
      "Trinidad": 3889,
      "babwe": 3890,
      "Kuwait": 3891,
      "Legislative": 3892,
      "Zimbabwe": 3893,
      "Ros": 3894,
      "cemet": 3895,
      "beat": 3896,
      "isham": 3897,
      "teen": 3898,
      "German": 3899,
      "xxx": 3900,
      "carrier": 3901,
      "Bright": 3902,
      "Nep": 3903,
      "PE": 3904,
      "dream": 3905,
      "paid": 3906,
      "estim": 3907,
      "whis": 3908,
      "Whale": 3909,
      "drink": 3910,
      "studied": 3911,
      "continued": 3912,
      "thod": 3913,
      "1990": 3914,
      "Road": 3915,
      "Michael": 3916,
      "cotton": 3917,
      "exploitation": 3918,
      "Gh": 3919,
      "Map": 3920,
      "mn": 3921,
      "ening": 3922,
      "Turkmen": 3923,
      "horizon": 3924,
      "doubt": 3925,
      "mers": 3926,
      "spect": 3927,
      "uclear": 3928,
      "aza": 3929,
      "walked": 3930,
      "mingham": 3931,
      "obligation": 3932,
      "DWT": 3933,
      "Rw": 3934,
      "Ug": 3935,
      "democ": 3936,
      "jpg": 3937,
      "nine": 3938,
      "pension": 3939,
      "sand": 3940,
      "vot": 3941,
      "stair": 3942,
      "forward": 3943,
      "sher": 3944,
      "shad": 3945,
      "composition": 3946,
      "area": 3947,
      "ibility": 3948,
      "itten": 3949,
      "character": 3950,
      "added": 3951,
      "quarter": 3952,
      "David": 3953,
      "Djib": 3954,
      "Luxemb": 3955,
      "front": 3956,
      "series": 3957,
      "consists": 3958,
      "Birmingham": 3959,
      "strange": 3960,
      "Havisham": 3961,
      "Lithuania": 3962,
      "Est": 3963,
      "ress": 3964,
      "influ": 3965,
      "uts": 3966,
      "ills": 3967,
      "diff": 3968,
      "followed": 3969,
      "Louis": 3970,
      "Bingley": 3971,
      "Djibout": 3972,
      "Luxembourg": 3973,
      "Du": 3974,
      "WTo": 3975,
      "ocation": 3976,
      "Scene": 3977,
      "reserves": 3978,
      "WToO": 3979,
      "fied": 3980,
      "hop": 3981,
      "pa": 3982,
      "pul": 3983,
      "stage": 3984,
      "rock": 3985,
      "volunt": 3986,
      "ffic": 3987,
      "swana": 3988,
      "straight": 3989,
      "Kyoto": 3990,
      "Cuba": 3991,
      "Guatemala": 3992,
      "Erit": 3993,
      "Kyr": 3994,
      "fle": 3995,
      "alk": 3996,
      "itte": 3997,
      "1800": 3998,
      "chell": 3999,
      "PPP": 4000,
      "Executive": 4001,
      "expectancy": 4002,
      "railway": 4003,
      "Tanz": 4004,
      "accord": 4005,
      "expected": 4006,
      "central": 4007,
      "mond": 4008,
      "Ap": 4009,
      "Clo": 4010,
      "Es": 4011,
      "Go": 4012,
      "Oman": 4013,
      "lic": 4014,
      "comfort": 4015,
      "gyz": 4016,
      "unicameral": 4017,
      "references": 4018,
      "Tunis": 4019,
      "Kyrgyz": 4020,
      "RA": 4021,
      "na": 4022,
      "vict": 4023,
      "tock": 4024,
      "iced": 4025,
      "ague": 4026,
      "illes": 4027,
      "propr": 4028,
      "affe": 4029,
      "ICFTU": 4030,
      "Cost": 4031,
      "occupation": 4032,
      "comparative": 4033,
      "jurisdiction": 4034,
      "Antigua": 4035,
      "wine": 4036,
      "Defar": 4037,
      "circum": 4038,
      "fight": 4039,
      "information": 4040,
      "comr": 4041,
      "anced": 4042,
      "ICJ": 4043,
      "folk": 4044,
      "ville": 4045,
      "frequ": 4046,
      "glo": 4047,
      "una": 4048,
      "1803": 4049,
      "walk": 4050,
      "BA": 4051,
      "Lank": 4052,
      "agree": 4053,
      "contested": 4054,
      "silver": 4055,
      "Moldo": 4056,
      "Gabon": 4057,
      "Tobago": 4058,
      "Bath": 4059,
      "ener": 4060,
      "story": 4061,
      "omon": 4062,
      "rush": 4063,
      "heads": 4064,
      "pread": 4065,
      "complet": 4066,
      "ierra": 4067,
      "branches": 4068,
      "timber": 4069,
      "Armenia": 4070,
      "HA": 4071,
      "Mel": 4072,
      "][": 4073,
      "become": 4074,
      "girls": 4075,
      "Libya": 4076,
      "Djibouti": 4077,
      "leng": 4078,
      "iders": 4079,
      "aine": 4080,
      "mons": 4081,
      "afterwards": 4082,
      "Comor": 4083,
      "Uzbekistan": 4084,
      "Ghana": 4085,
      "Am": 4086,
      "cat": 4087,
      "middle": 4088,
      "adop": 4089,
      "vert": 4090,
      "Maritime": 4091,
      "boats": 4092,
      "Benin": 4093,
      "Tanzania": 4094,
      "Sha": 4095,
      "onom": 4096,
      "removed": 4097,
      "deal": 4098,
      "guard": 4099,
      "social": 4100,
      "migration": 4101,
      "Scott": 4102,
      "Macedonia": 4103,
      "Nicar": 4104,
      "Tot": 4105,
      "ole": 4106,
      "rich": 4107,
      "cool": 4108,
      "fever": 4109,
      "scar": 4110,
      "flat": 4111,
      "stopped": 4112,
      "replied": 4113,
      "Madagas": 4114,
      "Jersey": 4115,
      "manager": 4116,
      "Nepal": 4117,
      "Defarge": 4118,
      "Bi": 4119,
      "Mur": 4120,
      "Tra": 4121,
      "iers": 4122,
      "agua": 4123,
      "ulf": 4124,
      "merchant": 4125,
      "establish": 4126,
      "Botswana": 4127,
      "\".": 4128,
      "IPU": 4129,
      "OV": 4130,
      "Treat": 4131,
      "train": 4132,
      "wire": 4133,
      "instant": 4134,
      "ceme": 4135,
      "aco": 4136,
      "landlocked": 4137,
      "Barbad": 4138,
      "Turk": 4139,
      "itius": 4140,
      "Mauritius": 4141,
      "occasion": 4142,
      "Bomb": 4143,
      "Kens": 4144,
      "Sri": 4145,
      "Wales": 4146,
      "hous": 4147,
      "1805": 4148,
      "Taj": 4149,
      "ffer": 4150,
      "arian": 4151,
      "stri": 4152,
      "awi": 4153,
      "warm": 4154,
      "hood": 4155,
      "Ship": 4156,
      "chapel": 4157,
      "Solomon": 4158,
      "Judicial": 4159,
      "Namib": 4160,
      "115": 4161,
      "Hor": 4162,
      "TA": 4163,
      "Wil": 4164,
      "aur": 4165,
      "makes": 4166,
      "already": 4167,
      "prote": 4168,
      "1996": 4169,
      "Paragu": 4170,
      "Maurit": 4171,
      "Empire": 4172,
      "History": 4173,
      "census": 4174,
      "Uganda": 4175,
      "Madagascar": 4176,
      "Puer": 4177,
      "Sand": 4178,
      "dau": 4179,
      "entire": 4180,
      "adult": 4181,
      "mention": 4182,
      "ibly": 4183,
      "Barb": 4184,
      "Dominican": 4185,
      "Chapter": 4186,
      "Turkmenistan": 4187,
      "Bombay": 4188,
      "Puerto": 4189,
      "IAE": 4190,
      "cester": 4191,
      "spl": 4192,
      "win": 4193,
      "forts": 4194,
      "Intro": 4195,
      "105": 4196,
      "Sey": 4197,
      "Montene": 4198,
      "Somalia": 4199,
      "physic": 4200,
      "govina": 4201,
      "Kyrgyzstan": 4202,
      "Paraguay": 4203,
      "IAEA": 4204,
      "Sah": 4205,
      "Zambia": 4206,
      "cing": 4207,
      "mick": 4208,
      "State": 4209,
      "Leone": 4210,
      "transl": 4211,
      "Herze": 4212,
      "Timor": 4213,
      "propriet": 4214,
      "117": 4215,
      "Mc": 4216,
      "Sierra": 4217,
      "waters": 4218,
      "inqu": 4219,
      "eless": 4220,
      "deput": 4221,
      "extra": 4222,
      "burn": 4223,
      "southern": 4224,
      "status": 4225,
      "Illustr": 4226,
      "registered": 4227,
      "Introdu": 4228,
      "Ay": 4229,
      "BLO": 4230,
      "Qatar": 4231,
      "gun": 4232,
      "navy": 4233,
      "design": 4234,
      "mountains": 4235,
      "Papua": 4236,
      "commercial": 4237,
      "Bahrain": 4238,
      "Aven": 4239,
      "Net": 4240,
      "mult": 4241,
      "nuclear": 4242,
      "report": 4243,
      "raised": 4244,
      "deck": 4245,
      "doing": 4246,
      "ubb": 4247,
      "organization": 4248,
      "piece": 4249,
      "Fiji": 4250,
      "Tajik": 4251,
      "Buck": 4252,
      "soft": 4253,
      "plate": 4254,
      "observ": 4255,
      "object": 4256,
      "Norfolk": 4257,
      "Polyn": 4258,
      "northern": 4259,
      "copper": 4260,
      "Surin": 4261,
      "Angola": 4262,
      "Herzegovina": 4263,
      "drew": 4264,
      "eBook": 4265,
      "independent": 4266,
      "arran": 4267,
      "exe": 4268,
      "Helena": 4269,
      "principal": 4270,
      "Alexander": 4271,
      "Agriculture": 4272,
      "Brighton": 4273,
      "Eritrea": 4274,
      "Ca": 4275,
      "Wem": 4276,
      "died": 4277,
      "refin": 4278,
      "deen": 4279,
      "Cook": 4280,
      "correspond": 4281,
      "Brune": 4282,
      "soul": 4283,
      "bottom": 4284,
      "slowly": 4285,
      "Haiti": 4286,
      "truth": 4287,
      "beautiful": 4288,
      "Albania": 4289,
      "Victoria": 4290,
      "Rwanda": 4291,
      "Moldova": 4292,
      "Ac": 4293,
      "XX": 4294,
      "iner": 4295,
      "rank": 4296,
      "carry": 4297,
      "Industrial": 4298,
      "horizontal": 4299,
      ",'": 4300,
      "forced": 4301,
      "unte": 4302,
      "export": 4303,
      "ously": 4304,
      "duke": 4305,
      "acher": 4306,
      "Represent": 4307,
      "signific": 4308,
      "bands": 4309,
      "particularly": 4310,
      "ICCt": 4311,
      "Relig": 4312,
      "Tu": 4313,
      "fet": 4314,
      "longer": 4315,
      "employed": 4316,
      "Geographic": 4317,
      "Islam": 4318,
      "printed": 4319,
      "solicitor": 4320,
      "length": 4321,
      "Wemmick": 4322,
      "OU": 4323,
      "Wall": 4324,
      "kina": 4325,
      "sty": 4326,
      "trust": 4327,
      "plic": 4328,
      "Devon": 4329,
      "ancient": 4330,
      "science": 4331,
      "capt": 4332,
      "stock": 4333,
      "Yorkshire": 4334,
      "investment": 4335,
      "Aberdeen": 4336,
      "cemetery": 4337,
      "Ni": 4338,
      "bon": 4339,
      "relie": 4340,
      "dep": 4341,
      "ference": 4342,
      "presented": 4343,
      "buck": 4344,
      "remained": 4345,
      "Tunisia": 4346,
      "Montenegro": 4347,
      "Nap": 4348,
      "olk": 4349,
      "raits": 4350,
      "understand": 4351,
      "letters": 4352,
      "survey": 4353,
      "summer": 4354,
      "smaller": 4355,
      "provinces": 4356,
      "Costa": 4357,
      "Barbuda": 4358,
      "BLOOM": 4359,
      "08": 4360,
      "Tong": 4361,
      "Wet": 4362,
      "ded": 4363,
      "include": 4364,
      "Greenland": 4365,
      "ittee": 4366,
      "Nicaragua": 4367,
      "Introduction": 4368,
      "acted": 4369,
      "rie": 4370,
      "sen": 4371,
      "aso": 4372,
      "asy": 4373,
      "Legal": 4374,
      "provide": 4375,
      "single": 4376,
      "easy": 4377,
      "Treaty": 4378,
      "later": 4379,
      "volcan": 4380,
      "III": 4381,
      "Madras": 4382,
      "Communications": 4383,
      "Holy": 4384,
      "building": 4385,
      "library": 4386,
      "Mongolia": 4387,
      "Namibia": 4388,
      "Brunei": 4389,
      "Lyn": 4390,
      "rid": 4391,
      "instit": 4392,
      "igan": 4393,
      "uture": 4394,
      "raid": 4395,
      "Reg": 4396,
      "Burkina": 4397,
      "habit": 4398,
      "Doctor": 4399,
      "IOM": 4400,
      "coastal": 4401,
      "contributed": 4402,
      "Cab": 4403,
      "Lin": 4404,
      "Lie": 4405,
      "imin": 4406,
      "ival": 4407,
      "maritime": 4408,
      "electr": 4409,
      "Administrative": 4410,
      "Berm": 4411,
      "extremes": 4412,
      "degree": 4413,
      "shelf": 4414,
      "Equatorial": 4415,
      "Barbados": 4416,
      "Our": 4417,
      "smo": 4418,
      "2009": 4419,
      "shot": 4420,
      "outside": 4421,
      "disease": 4422,
      "created": 4423,
      "holiday": 4424,
      "Look": 4425,
      "Transportation": 4426,
      "purchasing": 4427,
      "voluntary": 4428,
      "Eton": 4429,
      "Hun": 4430,
      "TE": 4431,
      "hic": 4432,
      "lain": 4433,
      "suffer": 4434,
      "Progress": 4435,
      "ledge": 4436,
      "written": 4437,
      "Lanka": 4438,
      "Tajikistan": 4439,
      "ny": 4440,
      "ses": 4441,
      "etc": 4442,
      "lips": 4443,
      "mining": 4444,
      "curity": 4445,
      "Samuel": 4446,
      "activity": 4447,
      "difficult": 4448,
      "Comoros": 4449,
      "Eastern": 4450,
      "iot": 4451,
      "ping": 4452,
      "recent": 4453,
      "ademy": 4454,
      "ossil": 4455,
      "parity": 4456,
      "Mali": 4457,
      "Dominica": 4458,
      "Disputes": 4459,
      "Sao": 4460,
      "sheriff": 4461,
      "SA": 4462,
      "lip": 4463,
      "granted": 4464,
      "Togo": 4465,
      "Guyana": 4466,
      "camp": 4467,
      "ffr": 4468,
      "ga": 4469,
      "hut": 4470,
      "nation": 4471,
      "Nevis": 4472,
      "justice": 4473,
      "travell": 4474,
      "efforts": 4475,
      "Burund": 4476,
      "Radio": 4477,
      "spirit": 4478,
      "rapid": 4479,
      "Did": 4480,
      "Oli": 4481,
      "review": 4482,
      "nock": 4483,
      "tea": 4484,
      "higher": 4485,
      "percentage": 4486,
      "papers": 4487,
      "Birth": 4488,
      "Frederick": 4489,
      "CL": 4490,
      "bs": 4491,
      "ding": 4492,
      "anch": 4493,
      "ght": 4494,
      "disput": 4495,
      "communications": 4496,
      "Alliance": 4497,
      "dollars": 4498,
      "location": 4499,
      "hazards": 4500,
      "recogn": 4501,
      "Estella": 4502,
      "MAN": 4503,
      "Sus": 4504,
      "lift": 4505,
      "occur": 4506,
      "Unemployment": 4507,
      "preval": 4508,
      "participation": 4509,
      "preceding": 4510,
      "Lane": 4511,
      "eign": 4512,
      "fossil": 4513,
      "enced": 4514,
      "bulk": 4515,
      "Faso": 4516,
      "Gil": 4517,
      "Rica": 4518,
      "dread": 4519,
      "hors": 4520,
      "lane": 4521,
      "overview": 4522,
      "moon": 4523,
      "Malawi": 4524,
      "ampton": 4525,
      "Flag": 4526,
      "otho": 4527,
      "beyond": 4528,
      "Background": 4529,
      "Father": 4530,
      "Location": 4531,
      "whales": 4532,
      "users": 4533,
      "Stubb": 4534,
      "aving": 4535,
      "attempt": 4536,
      "pursu": 4537,
      "engineer": 4538,
      "suddenly": 4539,
      "Coastline": 4540,
      "mass": 4541,
      "ilar": 4542,
      "Chin": 4543,
      "rule": 4544,
      "seems": 4545,
      "Italian": 4546,
      "Laos": 4547,
      "rigated": 4548,
      "Pier": 4549,
      "Your": 4550,
      "wis": 4551,
      "wel": 4552,
      "earl": 4553,
      "shop": 4554,
      "upper": 4555,
      "Street": 4556,
      "Transnational": 4557,
      "Terrain": 4558,
      "istol": 4559,
      "Elevation": 4560,
      "07": 4561,
      "CR": 4562,
      "Cay": 4563,
      "sens": 4564,
      "vast": 4565,
      "inv": 4566,
      "lean": 4567,
      "ilk": 4568,
      "vehic": 4569,
      "stein": 4570,
      "purpose": 4571,
      "allowed": 4572,
      "script": 4573,
      "Television": 4574,
      "Bermuda": 4575,
      "sitting": 4576,
      "treas": 4577,
      "acc": 4578,
      "Issues": 4579,
      "polit": 4580,
      "Capital": 4581,
      "stantial": 4582,
      "admiral": 4583,
      "Suriname": 4584,
      "significant": 4585,
      "Wetlands": 4586,
      "Age": 4587,
      "From": 4588,
      "Telephone": 4589,
      "kiss": 4590,
      "uatu": 4591,
      ".).": 4592,
      "ained": 4593,
      "married": 4594,
      "Exchange": 4595,
      "Russian": 4596,
      "floor": 4597,
      "Organization": 4598,
      "Vanuatu": 4599,
      "Representatives": 4600,
      "kin": 4601,
      "viet": 4602,
      "oned": 4603,
      "poet": 4604,
      "ancing": 4605,
      "Soviet": 4606,
      "dropped": 4607,
      "named": 4608,
      "distribution": 4609,
      "situ": 4610,
      "Gulf": 4611,
      "opin": 4612,
      "overseas": 4613,
      "daylight": 4614,
      "regard": 4615,
      "engaged": 4616,
      "broke": 4617,
      "enny": 4618,
      "education": 4619,
      "developed": 4620,
      "ethnic": 4621,
      "sharp": 4622,
      "hosts": 4623,
      "Burundi": 4624,
      "Free": 4625,
      "Rico": 4626,
      "SO": 4627,
      "Wick": 4628,
      "bac": 4629,
      "sist": 4630,
      "oll": 4631,
      "Inflation": 4632,
      "volunte": 4633,
      "clock": 4634,
      "grave": 4635,
      "Flor": 4636,
      "trees": 4637,
      "trouble": 4638,
      "Total": 4639,
      "horses": 4640,
      "UD": 4641,
      "mel": 4642,
      "Def": 4643,
      "250": 4644,
      "Industries": 4645,
      "desp": 4646,
      "iddy": 4647,
      "terminals": 4648,
      "fertility": 4649,
      "vegetables": 4650,
      "Mauritania": 4651,
      "crown": 4652,
      "eque": 4653,
      "sie": 4654,
      "sense": 4655,
      "tree": 4656,
      "vin": 4657,
      "aster": 4658,
      "staff": 4659,
      "accoun": 4660,
      "ivid": 4661,
      "1801": 4662,
      "lecturer": 4663,
      "judges": 4664,
      "Ministers": 4665,
      "coalition": 4666,
      "Socialist": 4667,
      "cases": 4668,
      "connected": 4669,
      "Literary": 4670,
      "pilot": 4671,
      "Kitts": 4672,
      "ffrage": 4673,
      "Budget": 4674,
      "gely": 4675,
      "han": 4676,
      "aggers": 4677,
      "program": 4678,
      "box": 4679,
      "ratio": 4680,
      "annually": 4681,
      "electric": 4682,
      "Irrigated": 4683,
      "parliamentary": 4684,
      "*,": 4685,
      "Hy": 4686,
      "fro": 4687,
      "administrative": 4688,
      "usual": 4689,
      "tech": 4690,
      "Queeque": 4691,
      "distance": 4692,
      "Environmental": 4693,
      "changed": 4694,
      "palace": 4695,
      "property": 4696,
      "Queequeg": 4697,
      "Gambia": 4698,
      "Sex": 4699,
      "WFTU": 4700,
      "viii": 4701,
      "although": 4702,
      "stars": 4703,
      "earn": 4704,
      "portion": 4705,
      "thinking": 4706,
      "Ports": 4707,
      "spoke": 4708,
      "CI": 4709,
      "Fron": 4710,
      "counter": 4711,
      "ibati": 4712,
      "consist": 4713,
      "Society": 4714,
      "Latin": 4715,
      "association": 4716,
      "Kiribati": 4717,
      "control": 4718,
      "Languages": 4719,
      "Smith": 4720,
      "Biss": 4721,
      "Fiscal": 4722,
      "wed": 4723,
      "edy": 4724,
      "immedi": 4725,
      "Antilles": 4726,
      "harpo": 4727,
      "Household": 4728,
      "pleasure": 4729,
      "colonel": 4730,
      "Literacy": 4731,
      "Lesotho": 4732,
      "chelles": 4733,
      "houses": 4734,
      "Seychelles": 4735,
      "Bissau": 4736,
      "Tome": 4737,
      "Vice": 4738,
      "furn": 4739,
      "oy": 4740,
      "thin": 4741,
      "ounder": 4742,
      "peal": 4743,
      "Macau": 4744,
      "introduced": 4745,
      "Verde": 4746,
      "settled": 4747,
      "Bhut": 4748,
      "kne": 4749,
      "hath": 4750,
      "Infant": 4751,
      "afraid": 4752,
      "engra": 4753,
      "steel": 4754,
      "archite": 4755,
      "Territ": 4756,
      "stuffs": 4757,
      "Tonga": 4758,
      "Bhutan": 4759,
      "pes": 4760,
      "140": 4761,
      "discovered": 4762,
      "affair": 4763,
      "orders": 4764,
      "communic": 4765,
      "reading": 4766,
      "bordering": 4767,
      "foodstuffs": 4768,
      "prevalence": 4769,
      "Lanc": 4770,
      "Ps": 4771,
      "future": 4772,
      "mut": 4773,
      "ray": 4774,
      "log": 4775,
      "exact": 4776,
      "bles": 4777,
      "bling": 4778,
      "ights": 4779,
      "Debt": 4780,
      "parish": 4781,
      "ogue": 4782,
      "Coll": 4783,
      "twice": 4784,
      "flood": 4785,
      "Ethnic": 4786,
      "Lucia": 4787,
      "Front": 4788,
      "Gaza": 4789,
      "Lion": 4790,
      "Two": 4791,
      "erous": 4792,
      "ini": 4793,
      "determin": 4794,
      "joint": 4795,
      "Caled": 4796,
      "umping": 4797,
      "trafficked": 4798,
      "Navy": 4799,
      "gaz": 4800,
      "Associ": 4801,
      "1802": 4802,
      "Naur": 4803,
      "ential": 4804,
      "chance": 4805,
      "shap": 4806,
      "usually": 4807,
      "hero": 4808,
      "Chamber": 4809,
      "tail": 4810,
      "generally": 4811,
      "voy": 4812,
      "practice": 4813,
      "Timber": 4814,
      "Religions": 4815,
      "Nauru": 4816,
      "Jones": 4817,
      "unity": 4818,
      "utch": 4819,
      "goes": 4820,
      "cles": 4821,
      "prev": 4822,
      "Leon": 4823,
      "regions": 4824,
      "balance": 4825,
      "dinner": 4826,
      "places": 4827,
      "!—": 4828,
      "Jaggers": 4829,
      "Mount": 4830,
      "OE": 4831,
      "TON": 4832,
      "cattle": 4833,
      "rough": 4834,
      "tit": 4835,
      "wit": 4836,
      "org": 4837,
      "ores": 4838,
      "health": 4839,
      "talking": 4840,
      "1992": 4841,
      "active": 4842,
      "Monaco": 4843,
      "closed": 4844,
      "tis": 4845,
      "chamber": 4846,
      "unch": 4847,
      "knows": 4848,
      "attention": 4849,
      "defense": 4850,
      "Merchant": 4851,
      "circumst": 4852,
      "Turkish": 4853,
      "Avenue": 4854,
      "Cayman": 4855,
      "Defense": 4856,
      ".’": 4857,
      "Cast": 4858,
      "LD": 4859,
      "event": 4860,
      "euro": 4861,
      "hunt": 4862,
      "killed": 4863,
      "125": 4864,
      "volution": 4865,
      "regional": 4866,
      "medic": 4867,
      "Nationality": 4868,
      "ISPs": 4869,
      "refugees": 4870,
      "Providers": 4871,
      "Tropical": 4872,
      "Roadways": 4873,
      "BER": 4874,
      "Der": 4875,
      "ean": 4876,
      "expl": 4877,
      "keeper": 4878,
      "probab": 4879,
      "arecrow": 4880,
      "anybody": 4881,
      "160": 4882,
      "disc": 4883,
      "maid": 4884,
      "seeing": 4885,
      "Democracy": 4886,
      "sky": 4887,
      "Strip": 4888,
      "Radios": 4889,
      "pow": 4890,
      "rect": 4891,
      "igen": 4892,
      "contr": 4893,
      "progress": 4894,
      "1994": 4895,
      "substantial": 4896,
      "running": 4897,
      "Suffrage": 4898,
      "Grenada": 4899,
      "Televisions": 4900,
      "chten": 4901,
      "eman": 4902,
      "blind": 4903,
      "130": 4904,
      "please": 4905,
      "transport": 4906,
      "murder": 4907,
      "deputy": 4908,
      "Liechten": 4909,
      "Pierre": 4910,
      "Cart": 4911,
      "Tem": 4912,
      "cup": 4913,
      "appar": 4914,
      "noon": 4915,
      "adequ": 4916,
      "clothes": 4917,
      "lack": 4918,
      "administer": 4919,
      "leading": 4920,
      "director": 4921,
      "Suff": 4922,
      "faces": 4923,
      "reaching": 4924,
      "accepted": 4925,
      "Memoir": 4926,
      "Liechtenstein": 4927,
      "Biddy": 4928,
      "journal": 4929,
      "throw": 4930,
      "err": 4931,
      "ories": 4932,
      "stream": 4933,
      "ams": 4934,
      "dean": 4935,
      "lif": 4936,
      "phil": 4937,
      "resigned": 4938,
      "Never": 4939,
      "rising": 4940,
      "gentlemen": 4941,
      "gallery": 4942,
      "spring": 4943,
      "adopted": 4944,
      "Ear": 4945,
      "Every": 4946,
      "vii": 4947,
      "illing": 4948,
      "priest": 4949,
      "worn": 4950,
      "county": 4951,
      "move": 4952,
      "burg": 4953,
      "growing": 4954,
      "increased": 4955,
      "favour": 4956,
      "whisper": 4957,
      "Suffolk": 4958,
      "liqu": 4959,
      "plant": 4960,
      "1894": 4961,
      "courts": 4962,
      "Median": 4963,
      "begins": 4964,
      "materials": 4965,
      "List": 4966,
      "NO": 4967,
      "hast": 4968,
      "iar": 4969,
      "nig": 4970,
      "path": 4971,
      "forgot": 4972,
      "weak": 4973,
      "nose": 4974,
      "These": 4975,
      "icket": 4976,
      "parag": 4977,
      "certainly": 4978,
      "prisoner": 4979,
      "pounds": 4980,
      "Chinese": 4981,
      "eat": 4982,
      "match": 4983,
      "wound": 4984,
      "entry": 4985,
      "chan": 4986,
      "Asian": 4987,
      "transit": 4988,
      "delight": 4989,
      "learn": 4990,
      "feeling": 4991,
      "pieces": 4992,
      "department": 4993,
      "Principe": 4994,
      "drugs": 4995,
      "stairs": 4996,
      "Ash": 4997,
      "Ann": 4998,
      "working": 4999,
      "turning": 5000,
      "Swaz": 5001,
      "physician": 5002,
      "Bu": 5003,
      "RO": 5004,
      "date": 5005,
      "dust": 5006,
      "onder": 5007,
      "oupe": 5008,
      "ises": 5009,
      "mineral": 5010,
      "everybody": 5011,
      "continue": 5012,
      "chaplain": 5013,
      "Federal": 5014,
      "VI": 5015,
      "sick": 5016,
      "wash": 5017,
      "pocket": 5018,
      "bless": 5019,
      "faith": 5020,
      "minute": 5021,
      "prepar": 5022,
      "Bristol": 5023,
      "bourne": 5024,
      "Tuvalu": 5025,
      "igenous": 5026,
      "Middle": 5027,
      "Val": 5028,
      "pian": 5029,
      "usion": 5030,
      "103": 5031,
      "2010": 5032,
      "osop": 5033,
      "Scarecrow": 5034,
      "keeping": 5035,
      "gross": 5036,
      "occupied": 5037,
      "trafficking": 5038,
      "acquaint": 5039,
      "KA": 5040,
      "UAE": 5041,
      "fund": 5042,
      "uses": 5043,
      "sover": 5044,
      "135": 5045,
      "Andor": 5046,
      "Maldiv": 5047,
      "western": 5048,
      "Congress": 5049,
      "knighted": 5050,
      "Bay": 5051,
      "Work": 5052,
      "milit": 5053,
      "tong": 5054,
      "2008": 5055,
      "seat": 5056,
      "ops": 5057,
      "explain": 5058,
      "Guadel": 5059,
      "Exit": 5060,
      "Britain": 5061,
      "happened": 5062,
      "likely": 5063,
      "techn": 5064,
      "Emir": 5065,
      "fat": 5066,
      "aded": 5067,
      "uncle": 5068,
      "ladies": 5069,
      "similar": 5070,
      "superint": 5071,
      "languages": 5072,
      "eligible": 5073,
      "increasing": 5074,
      "fficient": 5075,
      "adequate": 5076,
      "die": 5077,
      "tor": 5078,
      "recip": 5079,
      "urban": 5080,
      "proceed": 5081,
      "otherwise": 5082,
      "preh": 5083,
      "sexual": 5084,
      "Micron": 5085,
      "ydney": 5086,
      "Caledonia": 5087,
      "Guadeloupe": 5088,
      "MON": 5089,
      "inf": 5090,
      "edge": 5091,
      "lete": 5092,
      "prent": 5093,
      "shut": 5094,
      "lovely": 5095,
      "marked": 5096,
      "undering": 5097,
      "1799": 5098,
      "holding": 5099,
      "Current": 5100,
      "sorry": 5101,
      "forestation": 5102,
      "changes": 5103,
      "beginning": 5104,
      "paragraph": 5105,
      "Swaziland": 5106,
      "Tell": 5107,
      "bread": 5108,
      "founder": 5109,
      "coach": 5110,
      "Guiana": 5111,
      "reached": 5112,
      "flowers": 5113,
      "Justice": 5114,
      "sovereign": 5115,
      "recipient": 5116,
      "116": 5117,
      "Ag": 5118,
      "Ru": 5119,
      "Sat": 5120,
      "rice": 5121,
      "method": 5122,
      "trying": 5123,
      "village": 5124,
      "Polynesia": 5125,
      "Collins": 5126,
      "Bas": 5127,
      "Sydney": 5128,
      "crit": 5129,
      "pir": 5130,
      "1993": 5131,
      "domin": 5132,
      "iamond": 5133,
      "aught": 5134,
      "pleasant": 5135,
      "necessary": 5136,
      "?'": 5137,
      "Mid": 5138,
      "Mill": 5139,
      "Vol": 5140,
      "action": 5141,
      "bod": 5142,
      "ka": 5143,
      "ali": 5144,
      "remark": 5145,
      "meant": 5146,
      "sely": 5147,
      "prevent": 5148,
      "Conserv": 5149,
      "memoir": 5150,
      "repeaters": 5151,
      "garden": 5152,
      "district": 5153,
      "Duke": 5154,
      "depth": 5155,
      "Are": 5156,
      "Cork": 5157,
      "Rem": 5158,
      "UC": 5159,
      "cra": 5160,
      "catch": 5161,
      "crew": 5162,
      "rick": 5163,
      "sad": 5164,
      "wing": 5165,
      "escap": 5166,
      "clim": 5167,
      "Guam": 5168,
      "Guern": 5169,
      "thoughts": 5170,
      "provided": 5171,
      "personal": 5172,
      "drawn": 5173,
      "constitutional": 5174,
      "Martinique": 5175,
      "Association": 5176,
      "Guernsey": 5177,
      "fal": 5178,
      "fash": 5179,
      "luck": 5180,
      "deforestation": 5181,
      "liber": 5182,
      "sug": 5183,
      "individ": 5184,
      "complete": 5185,
      "desc": 5186,
      "greater": 5187,
      "baronet": 5188,
      "operation": 5189,
      "considered": 5190,
      "custom": 5191,
      "gardens": 5192,
      "Andorra": 5193,
      "Graph": 5194,
      "Nich": 5195,
      "PD": 5196,
      "ox": 5197,
      "rise": 5198,
      "102": 5199,
      "indigenous": 5200,
      "acts": 5201,
      "proprietor": 5202,
      "113": 5203,
      "Sk": 5204,
      "wen": 5205,
      "tobac": 5206,
      "conv": 5207,
      "optic": 5208,
      "blow": 5209,
      "worse": 5210,
      "Develop": 5211,
      "marri": 5212,
      "PCA": 5213,
      "testant": 5214,
      "Graphic": 5215,
      "fiber": 5216,
      "phe": 5217,
      "vess": 5218,
      "unknown": 5219,
      "neck": 5220,
      "prec": 5221,
      "authority": 5222,
      "broken": 5223,
      "continues": 5224,
      "hardly": 5225,
      "drawing": 5226,
      "demand": 5227,
      "Falk": 5228,
      "Hall": 5229,
      "JO": 5230,
      "WCL": 5231,
      "data": 5232,
      "thedr": 5233,
      "emark": 5234,
      "agent": 5235,
      "170": 5236,
      "ranean": 5237,
      "121": 5238,
      "centered": 5239,
      "settle": 5240,
      "Turks": 5241,
      "ordinary": 5242,
      "trademark": 5243,
      "Garden": 5244,
      "policy": 5245,
      "Maldives": 5246,
      "suggest": 5247,
      "Gal": 5248,
      "Public": 5249,
      "hr": 5250,
      "oid": 5251,
      "icts": 5252,
      "leans": 5253,
      "stren": 5254,
      "ula": 5255,
      "saving": 5256,
      "coln": 5257,
      "brig": 5258,
      "scient": 5259,
      "....": 5260,
      "Reunion": 5261,
      "muse": 5262,
      "helped": 5263,
      "electricity": 5264,
      "wrong": 5265,
      "Christmas": 5266,
      "risk": 5267,
      "commander": 5268,
      "Archive": 5269,
      "officer": 5270,
      "lodge": 5271,
      "Lincoln": 5272,
      "individual": 5273,
      "AF": 5274,
      "num": 5275,
      "—”": 5276,
      "rot": 5277,
      "concl": 5278,
      "coc": 5279,
      "Prince": 5280,
      "breast": 5281,
      "repeated": 5282,
      "114": 5283,
      "NS": 5284,
      "Tor": 5285,
      "lon": 5286,
      "sell": 5287,
      "notice": 5288,
      "aux": 5289,
      "umble": 5290,
      "weather": 5291,
      "noble": 5292,
      "largely": 5293,
      "435": 5294,
      "caught": 5295,
      "standard": 5296,
      "Group": 5297,
      "Cabinet": 5298,
      "tobacco": 5299,
      "Dutch": 5300,
      "bone": 5301,
      "feder": 5302,
      "iy": 5303,
      "pher": 5304,
      "sac": 5305,
      "apprent": 5306,
      "tons": 5307,
      "minor": 5308,
      "Review": 5309,
      "AND": 5310,
      "atherine": 5311,
      "fortun": 5312,
      "rolled": 5313,
      "aniel": 5314,
      "ruption": 5315,
      "Wickham": 5316,
      "GE": 5317,
      "mixed": 5318,
      "nav": 5319,
      "names": 5320,
      "vac": 5321,
      "threat": 5322,
      "inct": 5323,
      "olly": 5324,
      "imple": 5325,
      "terrace": 5326,
      "exist": 5327,
      "compl": 5328,
      "arts": 5329,
      "guards": 5330,
      "1795": 5331,
      "moder": 5332,
      "appearance": 5333,
      "Niue": 5334,
      "situation": 5335,
      "Bro": 5336,
      "GH": 5337,
      "Gro": 5338,
      "Mu": 5339,
      "Pg": 5340,
      "Sul": 5341,
      "diamond": 5342,
      "nay": 5343,
      "nod": 5344,
      "tears": 5345,
      "ume": 5346,
      "instead": 5347,
      "Guard": 5348,
      "Covent": 5349,
      "winds": 5350,
      "located": 5351,
      "Palau": 5352,
      "writing": 5353,
      "Faroe": 5354,
      "probably": 5355,
      "Emirates": 5356,
      "Development": 5357,
      "EV": 5358,
      "Gar": 5359,
      "IL": 5360,
      "Nations": 5361,
      "OAS": 5362,
      "pton": 5363,
      "thick": 5364,
      "atoes": 5365,
      "itz": 5366,
      "ading": 5367,
      "devil": 5368,
      "shr": 5369,
      "aching": 5370,
      "spap": 5371,
      "submarine": 5372,
      "Count": 5373,
      "Maj": 5374,
      "numbers": 5375,
      "neighbor": 5376,
      "Communist": 5377,
      "Sahara": 5378,
      "fashion": 5379,
      "streng": 5380,
      "$-": 5381,
      "Lyd": 5382,
      "battle": 5383,
      "duty": 5384,
      "mile": 5385,
      "uties": 5386,
      "ager": 5387,
      "loss": 5388,
      "107": 5389,
      "108": 5390,
      "legisl": 5391,
      "passing": 5392,
      "annual": 5393,
      "fortune": 5394,
      "fifty": 5395,
      "Scottish": 5396,
      "opinion": 5397,
      "NZ": 5398,
      "rag": 5399,
      "send": 5400,
      "armed": 5401,
      "record": 5402,
      "esty": 5403,
      "Johnson": 5404,
      "worked": 5405,
      "belong": 5406,
      "iterranean": 5407,
      "Mediterranean": 5408,
      "advoc": 5409,
      "spoken": 5410,
      "declared": 5411,
      "influence": 5412,
      "thedral": 5413,
      "CD": 5414,
      "MU": 5415,
      "Sy": 5416,
      "cow": 5417,
      "lit": 5418,
      "naval": 5419,
      "uz": 5420,
      "xim": 5421,
      "eros": 5422,
      "inspe": 5423,
      "ari": 5424,
      "icos": 5425,
      "roy": 5426,
      "portraits": 5427,
      "Mark": 5428,
      "currency": 5429,
      "silence": 5430,
      "Glou": 5431,
      "Lake": 5432,
      "ippi": 5433,
      "network": 5434,
      "cou": 5435,
      "cod": 5436,
      "hung": 5437,
      "erves": 5438,
      "prince": 5439,
      "orts": 5440,
      "atever": 5441,
      "aud": 5442,
      "Proc": 5443,
      "Orleans": 5444,
      "youngest": 5445,
      "additional": 5446,
      "rolling": 5447,
      "Federated": 5448,
      "problem": 5449,
      "Starbuck": 5450,
      "specified": 5451,
      "Micronesia": 5452,
      "AU": 5453,
      "GU": 5454,
      "eks": 5455,
      "advice": 5456,
      "concer": 5457,
      "illustr": 5458,
      "lique": 5459,
      "endent": 5460,
      "Angu": 5461,
      "cloud": 5462,
      "nobody": 5463,
      "scene": 5464,
      "larger": 5465,
      "contact": 5466,
      "laundering": 5467,
      "giving": 5468,
      "effective": 5469,
      "breakfast": 5470,
      "Lydia": 5471,
      "Adel": 5472,
      "Che": 5473,
      "Hay": 5474,
      "TT": 5475,
      "ties": 5476,
      "infr": 5477,
      "itive": 5478,
      "ented": 5479,
      "utions": 5480,
      "feat": 5481,
      "Which": 5482,
      "speaking": 5483,
      "Ref": 5484,
      "cuit": 5485,
      "Liberal": 5486,
      "Exeter": 5487,
      "marriage": 5488,
      "Hill": 5489,
      "gs": 5490,
      "wet": 5491,
      "assembly": 5492,
      "stret": 5493,
      "strate": 5494,
      "ades": 5495,
      "approved": 5496,
      "issippi": 5497,
      "looks": 5498,
      "Drury": 5499,
      "Illust": 5500,
      "salt": 5501,
      "Kensington": 5502,
      "administered": 5503,
      "museum": 5504,
      "112": 5505,
      "Lam": 5506,
      "ZA": 5507,
      "mast": 5508,
      "ators": 5509,
      "suit": 5510,
      "dram": 5511,
      "mighty": 5512,
      "Mississippi": 5513,
      "expand": 5514,
      "translated": 5515,
      "Gilbert": 5516,
      "medicine": 5517,
      "SH": 5518,
      "ify": 5519,
      "101": 5520,
      "Marino": 5521,
      "typh": 5522,
      "points": 5523,
      "20008": 5524,
      "histor": 5525,
      "student": 5526,
      "hydropower": 5527,
      "Nichol": 5528,
      "bag": 5529,
      "cred": 5530,
      "ias": 5531,
      "jun": 5532,
      "encour": 5533,
      "issu": 5534,
      "emer": 5535,
      "phos": 5536,
      "donations": 5537,
      "attached": 5538,
      "1793": 5539,
      "pressed": 5540,
      "Box": 5541,
      "Phill": 5542,
      "Madame": 5543,
      "Philip": 5544,
      "showed": 5545,
      "ruba": 5546,
      "citizen": 5547,
      "220": 5548,
      "Aruba": 5549,
      "Mull": 5550,
      "craft": 5551,
      "hom": 5552,
      "administr": 5553,
      "convers": 5554,
      "applic": 5555,
      "endum": 5556,
      "106": 5557,
      "extensive": 5558,
      "stop": 5559,
      "Grand": 5560,
      "Bell": 5561,
      "Dick": 5562,
      "Fut": 5563,
      "Mos": 5564,
      "mild": 5565,
      "leep": 5566,
      "eling": 5567,
      "verse": 5568,
      "save": 5569,
      "aked": 5570,
      "range": 5571,
      "inte": 5572,
      "izz": 5573,
      "observed": 5574,
      "highly": 5575,
      "pping": 5576,
      "cathedral": 5577,
      "considerable": 5578,
      "Gent": 5579,
      "Lim": 5580,
      "Wind": 5581,
      "sper": 5582,
      "knowledge": 5583,
      "Sec": 5584,
      "Montser": 5585,
      "cultiv": 5586,
      "Anguilla": 5587,
      "Chel": 5588,
      "iation": 5589,
      "ocean": 5590,
      "tall": 5591,
      "alus": 5592,
      "ires": 5593,
      "consequ": 5594,
      "trillion": 5595,
      "vention": 5596,
      "sket": 5597,
      "unicip": 5598,
      "harm": 5599,
      "clean": 5600,
      "fruit": 5601,
      "relief": 5602,
      "Hamp": 5603,
      "Tok": 5604,
      "thro": 5605,
      "atom": 5606,
      "assu": 5607,
      "opport": 5608,
      "academy": 5609,
      "Instit": 5610,
      "205": 5611,
      "offshore": 5612,
      "desert": 5613,
      "throughout": 5614,
      "picture": 5615,
      "perfectly": 5616,
      "philosop": 5617,
      "Falkland": 5618,
      "Montserrat": 5619,
      "Er": 5620,
      "Even": 5621,
      "Fol": 5622,
      "Gre": 5623,
      "Pit": 5624,
      "PAR": 5625,
      "dy": 5626,
      "spread": 5627,
      "tur": 5628,
      "elon": 5629,
      "sheep": 5630,
      "burton": 5631,
      "speech": 5632,
      "1796": 5633,
      "touch": 5634,
      "Wallis": 5635,
      "dispute": 5636,
      "Sussex": 5637,
      "knock": 5638,
      "nations": 5639,
      "pup": 5640,
      "zen": 5641,
      "cement": 5642,
      "conce": 5643,
      "sav": 5644,
      "agreed": 5645,
      "Antarct": 5646,
      "steps": 5647,
      "heaven": 5648,
      "Woodman": 5649,
      "religious": 5650,
      "Catherine": 5651,
      "ec": 5652,
      "fancy": 5653,
      "nice": 5654,
      "alian": 5655,
      "Mariana": 5656,
      "127": 5657,
      "165": 5658,
      "vision": 5659,
      "azine": 5660,
      "dependents": 5661,
      "ography": 5662,
      "divided": 5663,
      "assistance": 5664,
      "waiting": 5665,
      "associated": 5666,
      "division": 5667,
      "meeting": 5668,
      "painter": 5669,
      "painted": 5670,
      "energy": 5671,
      "Have": 5672,
      "Kar": 5673,
      "Rail": 5674,
      "latter": 5675,
      "ads": 5676,
      "utor": 5677,
      "indic": 5678,
      "thank": 5679,
      "Trade": 5680,
      "playing": 5681,
      "plains": 5682,
      "hills": 5683,
      "directly": 5684,
      "winters": 5685,
      "09": 5686,
      "Ded": 5687,
      "Ev": 5688,
      "Ray": 5689,
      "mere": 5690,
      "nell": 5691,
      "pear": 5692,
      "sang": 5693,
      "toll": 5694,
      "stick": 5695,
      "sem": 5696,
      "excell": 5697,
      "fright": 5698,
      "Invest": 5699,
      "rict": 5700,
      "surround": 5701,
      "brew": 5702,
      "metals": 5703,
      "require": 5704,
      "Exeunt": 5705,
      "begun": 5706,
      "candid": 5707,
      "democracy": 5708,
      "Illustration": 5709,
      "phosph": 5710,
      "Bou": 5711,
      "ipel": 5712,
      "awa": 5713,
      "primarily": 5714,
      "exactly": 5715,
      "determined": 5716,
      "eg": 5717,
      "fold": 5718,
      "mill": 5719,
      "ply": 5720,
      "pipe": 5721,
      "rif": 5722,
      "tes": 5723,
      "anx": 5724,
      "oting": 5725,
      "youth": 5726,
      "poems": 5727,
      "forms": 5728,
      "subsequ": 5729,
      "legs": 5730,
      "clothing": 5731,
      "tribution": 5732,
      "reforms": 5733,
      "livestock": 5734,
      "bicameral": 5735,
      "Antarctica": 5736,
      "Lic": 5737,
      "job": 5738,
      "lx": 5739,
      "ns": 5740,
      "rant": 5741,
      "itis": 5742,
      "vet": 5743,
      "trian": 5744,
      "notes": 5745,
      "quod": 5746,
      "serious": 5747,
      "shoulder": 5748,
      "roads": 5749,
      "represented": 5750,
      "confidence": 5751,
      "finger": 5752,
      "Hand": 5753,
      "ao": 5754,
      "municip": 5755,
      "thur": 5756,
      "improved": 5757,
      "otte": 5758,
      "artment": 5759,
      "weight": 5760,
      "fects": 5761,
      "reef": 5762,
      "izing": 5763,
      "committee": 5764,
      "Protestant": 5765,
      "1794": 5766,
      "iddles": 5767,
      "hurt": 5768,
      "double": 5769,
      "Upper": 5770,
      "liquid": 5771,
      "Futuna": 5772,
      "Oz": 5773,
      "Ret": 5774,
      "acon": 5775,
      "card": 5776,
      "cities": 5777,
      "nomin": 5778,
      "yards": 5779,
      "edom": 5780,
      "heredit": 5781,
      "ishing": 5782,
      "While": 5783,
      "129": 5784,
      "achie": 5785,
      "smile": 5786,
      "Pequod": 5787,
      "mayor": 5788,
      "summers": 5789,
      "Baronet": 5790,
      "transship": 5791,
      "opening": 5792,
      "judicial": 5793,
      "walking": 5794,
      "Somer": 5795,
      "facilities": 5796,
      "responsibility": 5797,
      "invented": 5798,
      "Clar": 5799,
      "Little": 5800,
      "Town": 5801,
      "bust": 5802,
      "fisher": 5803,
      "lat": 5804,
      "milk": 5805,
      "tu": 5806,
      "era": 5807,
      "iny": 5808,
      "1960": 5809,
      "sake": 5810,
      "cane": 5811,
      "attack": 5812,
      "Park": 5813,
      "Press": 5814,
      "associate": 5815,
      "Hook": 5816,
      "Dou": 5817,
      "IHO": 5818,
      "Tru": 5819,
      "rum": 5820,
      "trem": 5821,
      "anas": 5822,
      "exceed": 5823,
      "neither": 5824,
      "porting": 5825,
      "Anon": 5826,
      "oking": 5827,
      "wore": 5828,
      "poses": 5829,
      "baron": 5830,
      "Commission": 5831,
      "1798": 5832,
      "However": 5833,
      "opera": 5834,
      "streets": 5835,
      "referendum": 5836,
      "beauty": 5837,
      "www": 5838,
      "electrified": 5839,
      "nigger": 5840,
      "hereditary": 5841,
      "Dumping": 5842,
      "Had": 5843,
      "Miqu": 5844,
      "hid": 5845,
      "independents": 5846,
      "istry": 5847,
      "uted": 5848,
      "meat": 5849,
      "antly": 5850,
      "109": 5851,
      "1797": 5852,
      "schools": 5853,
      "easily": 5854,
      "aptist": 5855,
      "federation": 5856,
      "erosion": 5857,
      "Miquelon": 5858,
      "DO": 5859,
      "KO": 5860,
      "aunt": 5861,
      "filled": 5862,
      "isn": 5863,
      "astru": 5864,
      "unless": 5865,
      "ellor": 5866,
      "133": 5867,
      "111": 5868,
      "redu": 5869,
      "systems": 5870,
      "severe": 5871,
      "Warburton": 5872,
      "links": 5873,
      "Constitutional": 5874,
      "Murray": 5875,
      "infrastru": 5876,
      "Dedalus": 5877,
      "MC": 5878,
      "Middles": 5879,
      "Out": 5880,
      "Pres": 5881,
      "nes": 5882,
      "pig": 5883,
      "pred": 5884,
      "145": 5885,
      "Arthur": 5886,
      "presidential": 5887,
      "lectures": 5888,
      "Australian": 5889,
      "Charlot": 5890,
      "fields": 5891,
      "banking": 5892,
      "widow": 5893,
      "Caicos": 5894,
      "kill": 5895,
      "san": 5896,
      "yer": 5897,
      "recomm": 5898,
      "leaving": 5899,
      "hadn": 5900,
      "insur": 5901,
      "included": 5902,
      "horr": 5903,
      "shook": 5904,
      "Palest": 5905,
      "bearing": 5906,
      "carriage": 5907,
      "Islas": 5908,
      "suspend": 5909,
      "reckon": 5910,
      "Modification": 5911,
      "Essex": 5912,
      "correspondent": 5913,
      "title": 5914,
      "Derby": 5915,
      "Investment": 5916,
      "transshipment": 5917,
      "infrastructure": 5918,
      "119": 5919,
      "Gold": 5920,
      "ILL": 5921,
      "Mil": 5922,
      "nur": 5923,
      "proud": 5924,
      "exped": 5925,
      "wealth": 5926,
      "122": 5927,
      "rating": 5928,
      "visited": 5929,
      "medal": 5930,
      "solid": 5931,
      "woods": 5932,
      "index": 5933,
      "volcanic": 5934,
      "tongue": 5935,
      "assumed": 5936,
      "Ko": 5937,
      "Mack": 5938,
      "Sch": 5939,
      "link": 5940,
      "mess": 5941,
      "spar": 5942,
      "iguous": 5943,
      "perfor": 5944,
      "155": 5945,
      "2023": 5946,
      "owner": 5947,
      "regiment": 5948,
      "consult": 5949,
      "utenant": 5950,
      "deliver": 5951,
      "bananas": 5952,
      "evidence": 5953,
      "fingers": 5954,
      "Jackson": 5955,
      "resolved": 5956,
      "affection": 5957,
      "Islamic": 5958,
      "Territory": 5959,
      "navig": 5960,
      "Charlotte": 5961,
      "225": 5962,
      "pour": 5963,
      "enjoy": 5964,
      "ingu": 5965,
      "chain": 5966,
      "beef": 5967,
      "intell": 5968,
      "drago": 5969,
      "Though": 5970,
      "marry": 5971,
      "Mayotte": 5972,
      "compet": 5973,
      "surface": 5974,
      "grace": 5975,
      "feelings": 5976,
      "stranger": 5977,
      "Angel": 5978,
      "wonderful": 5979,
      "shadow": 5980,
      "Temple": 5981,
      "implement": 5982,
      "212": 5983,
      "Ga": 5984,
      "NP": 5985,
      "base": 5986,
      "dare": 5987,
      "god": 5988,
      "kitch": 5989,
      "whatever": 5990,
      "movement": 5991,
      "rows": 5992,
      "134": 5993,
      "canon": 5994,
      "Juan": 5995,
      "airn": 5996,
      "afternoon": 5997,
      "cycl": 5998,
      "Most": 5999,
      "eastern": 6000,
      "circuit": 6001,
      "chook": 6002,
      "quickly": 6003,
      "Hugh": 6004,
      "Act": 6005,
      "Fr": 6006,
      "Kath": 6007,
      "caval": 6008,
      "aria": 6009,
      "asleep": 6010,
      "advis": 6011,
      "forget": 6012,
      "terian": 6013,
      "aging": 6014,
      "wasn": 6015,
      "Strait": 6016,
      "marsh": 6017,
      "scatter": 6018,
      "police": 6019,
      "ctors": 6020,
      "hole": 6021,
      "travel": 6022,
      "autonom": 6023,
      "practised": 6024,
      "Walker": 6025,
      "communication": 6026,
      "integr": 6027,
      "Middlesex": 6028,
      "?—": 6029,
      "Atoll": 6030,
      "ELL": 6031,
      "Yet": 6032,
      "bill": 6033,
      "rout": 6034,
      "consc": 6035,
      "quis": 6036,
      "safe": 6037,
      "oked": 6038,
      "newspap": 6039,
      "grown": 6040,
      "Belfast": 6041,
      "coral": 6042,
      "advant": 6043,
      "creature": 6044,
      "surprise": 6045,
      "affairs": 6046,
      "intellig": 6047,
      "kitchen": 6048,
      "Fre": 6049,
      "Jes": 6050,
      "Pumble": 6051,
      "Watch": 6052,
      "bing": 6053,
      "ee": 6054,
      "pun": 6055,
      "toward": 6056,
      "toms": 6057,
      "aven": 6058,
      "123": 6059,
      "angel": 6060,
      "Lee": 6061,
      "Leeds": 6062,
      "reduc": 6063,
      "rainy": 6064,
      "Barry": 6065,
      "annel": 6066,
      "musical": 6067,
      "wheel": 6068,
      "smoke": 6069,
      "immediately": 6070,
      "circumstances": 6071,
      "License": 6072,
      "Pumblechook": 6073,
      "1hr": 6074,
      "BI": 6075,
      "Kil": 6076,
      "Sar": 6077,
      "Wel": 6078,
      "jour": 6079,
      "lets": 6080,
      "ims": 6081,
      "elled": 6082,
      "1980": 6083,
      "Three": 6084,
      "silent": 6085,
      "model": 6086,
      "practical": 6087,
      "ACP": 6088,
      "neighbour": 6089,
      "volunteers": 6090,
      "Castle": 6091,
      "cocaine": 6092,
      "Au": 6093,
      "Fri": 6094,
      "Jul": 6095,
      "fly": 6096,
      "grew": 6097,
      "lis": 6098,
      "loud": 6099,
      "pack": 6100,
      "takes": 6101,
      "tered": 6102,
      "opposition": 6103,
      "liked": 6104,
      "ints": 6105,
      "fail": 6106,
      "visible": 6107,
      "Manette": 6108,
      "strug": 6109,
      "1790": 6110,
      "younger": 6111,
      "improve": 6112,
      "average": 6113,
      "voyage": 6114,
      "strateg": 6115,
      "Ot": 6116,
      "Take": 6117,
      "gged": 6118,
      "lab": 6119,
      "lum": 6120,
      "mate": 6121,
      "sigh": 6122,
      "tap": 6123,
      "dee": 6124,
      "confl": 6125,
      "Still": 6126,
      "talked": 6127,
      "residence": 6128,
      "uded": 6129,
      "124": 6130,
      "Pross": 6131,
      "unders": 6132,
      "rooms": 6133,
      "cabin": 6134,
      "hotel": 6135,
      "Abd": 6136,
      "memory": 6137,
      "treatise": 6138,
      "imagine": 6139,
      "articles": 6140,
      "superintendent": 6141,
      "Bed": 6142,
      "Ball": 6143,
      "Daniel": 6144,
      "Fitz": 6145,
      "lor": 6146,
      "sin": 6147,
      "stern": 6148,
      "imon": 6149,
      "iments": 6150,
      "dece": 6151,
      "ipped": 6152,
      "pled": 6153,
      "cked": 6154,
      "fault": 6155,
      "Boy": 6156,
      "patient": 6157,
      "twel": 6158,
      "laughed": 6159,
      "container": 6160,
      "fruits": 6161,
      "literature": 6162,
      "heroin": 6163,
      "performan": 6164,
      "IA": 6165,
      "Jon": 6166,
      "gutenberg": 6167,
      "virt": 6168,
      "amps": 6169,
      "agon": 6170,
      "raf": 6171,
      "ounced": 6172,
      "sufficient": 6173,
      "175": 6174,
      "corpor": 6175,
      "formerly": 6176,
      "believed": 6177,
      "Reserves": 6178,
      "according": 6179,
      "Carton": 6180,
      "militia": 6181,
      "Mulligan": 6182,
      "twelve": 6183,
      "**": 6184,
      "Gor": 6185,
      "PL": 6186,
      "gement": 6187,
      "gives": 6188,
      "jaw": 6189,
      "internal": 6190,
      "novel": 6191,
      "riot": 6192,
      "teeth": 6193,
      "contiguous": 6194,
      "Art": 6195,
      "putting": 6196,
      "conditions": 6197,
      "MOR": 6198,
      "umberland": 6199,
      "direction": 6200,
      "Cross": 6201,
      "EE": 6202,
      "LY": 6203,
      "More": 6204,
      "WA": 6205,
      "leaves": 6206,
      "Information": 6207,
      "space": 6208,
      "copies": 6209,
      "famous": 6210,
      "maintain": 6211,
      "Pocket": 6212,
      "machine": 6213,
      "potatoes": 6214,
      "confess": 6215,
      "HCR": 6216,
      "Kel": 6217,
      "Met": 6218,
      "Youn": 6219,
      "sid": 6220,
      "snow": 6221,
      "tum": 6222,
      "thed": 6223,
      "asc": 6224,
      "leton": 6225,
      "amount": 6226,
      "whal": 6227,
      "boots": 6228,
      "128": 6229,
      "airy": 6230,
      "UNHCR": 6231,
      "spot": 6232,
      "crimin": 6233,
      "AfDB": 6234,
      "danger": 6235,
      "admitted": 6236,
      "Dur": 6237,
      "Ob": 6238,
      "dim": 6239,
      "pity": 6240,
      "uk": 6241,
      "astr": 6242,
      "elder": 6243,
      "security": 6244,
      "deed": 6245,
      "franc": 6246,
      "aston": 6247,
      "anti": 6248,
      "153": 6249,
      "preser": 6250,
      "240": 6251,
      "ratic": 6252,
      "attended": 6253,
      "greatest": 6254,
      "delic": 6255,
      "rivers": 6256,
      "thirty": 6257,
      "chancellor": 6258,
      "manufacturing": 6259,
      "purchased": 6260,
      "Crime": 6261,
      "Persian": 6262,
      "scientific": 6263,
      "210": 6264,
      "KI": 6265,
      "ba": 6266,
      "bid": 6267,
      "grey": 6268,
      "mud": 6269,
      "push": 6270,
      "ries": 6271,
      "rees": 6272,
      "rope": 6273,
      "148": 6274,
      "ibed": 6275,
      "presence": 6276,
      "awful": 6277,
      "230": 6278,
      "University": 6279,
      "inside": 6280,
      "finally": 6281,
      "lieutenant": 6282,
      "collections": 6283,
      "provides": 6284,
      "heavily": 6285,
      "matters": 6286,
      "officers": 6287,
      "municipal": 6288,
      "MP": 6289,
      "aign": 6290,
      "dat": 6291,
      "rural": 6292,
      "tight": 6293,
      "ws": 6294,
      "esian": 6295,
      "hea": 6296,
      "elines": 6297,
      "uries": 6298,
      "eleg": 6299,
      "158": 6300,
      "131": 6301,
      "ferred": 6302,
      "compass": 6303,
      "calm": 6304,
      "Malvin": 6305,
      "belief": 6306,
      "condition": 6307,
      "Wells": 6308,
      "management": 6309,
      "activities": 6310,
      "OSCE": 6311,
      "accounts": 6312,
      "Somerset": 6313,
      "suspended": 6314,
      "cavalry": 6315,
      "Malvinas": 6316,
      "!'": 6317,
      "Bet": 6318,
      "Del": 6319,
      "Kenn": 6320,
      "TR": 6321,
      "Wa": 6322,
      "ti": 6323,
      "tend": 6324,
      "elau": 6325,
      "forty": 6326,
      "amin": 6327,
      "constant": 6328,
      "composed": 6329,
      "grat": 6330,
      "166": 6331,
      "afford": 6332,
      "burst": 6333,
      "jected": 6334,
      "final": 6335,
      "caused": 6336,
      "Strand": 6337,
      "arrived": 6338,
      "Patrick": 6339,
      "conduct": 6340,
      "Cornwall": 6341,
      "comfortable": 6342,
      "Lynde": 6343,
      "witness": 6344,
      "Tokelau": 6345,
      "LIN": 6346,
      "Off": 6347,
      "PF": 6348,
      "Spr": 6349,
      "Wild": 6350,
      "budget": 6351,
      "aside": 6352,
      "ilder": 6353,
      "earch": 6354,
      "pecul": 6355,
      "anyone": 6356,
      "faction": 6357,
      "mail": 6358,
      "somebody": 6359,
      "marks": 6360,
      "posite": 6361,
      "UNO": 6362,
      "Frank": 6363,
      "earthqu": 6364,
      "Popular": 6365,
      "simply": 6366,
      "concerning": 6367,
      "separate": 6368,
      "Brown": 6369,
      "Sil": 6370,
      "Win": 6371,
      "YA": 6372,
      "cous": 6373,
      "dish": 6374,
      "federal": 6375,
      "rust": 6376,
      "spend": 6377,
      "zing": 6378,
      "enz": 6379,
      "search": 6380,
      "ami": 6381,
      "depos": 6382,
      "cos": 6383,
      "104": 6384,
      "2011": 6385,
      "161": 6386,
      "fled": 6387,
      "curious": 6388,
      "guess": 6389,
      "related": 6390,
      "supposed": 6391,
      "skin": 6392,
      "Such": 6393,
      "magnet": 6394,
      "needed": 6395,
      "morrow": 6396,
      "storms": 6397,
      "Federation": 6398,
      "Dundee": 6399,
      "advocate": 6400,
      ",’": 6401,
      "Ban": 6402,
      "Baptist": 6403,
      "OIC": 6404,
      "Tay": 6405,
      "iary": 6406,
      "pin": 6407,
      "pit": 6408,
      "yne": 6409,
      "inflation": 6410,
      "environment": 6411,
      "hem": 6412,
      "chu": 6413,
      "tran": 6414,
      "ishment": 6415,
      "coa": 6416,
      "142": 6417,
      "147": 6418,
      "sym": 6419,
      "honest": 6420,
      "fuels": 6421,
      "decided": 6422,
      "entirely": 6423,
      "shape": 6424,
      "credit": 6425,
      "peculiar": 6426,
      "118": 6427,
      "Da": 6428,
      "Los": 6429,
      "cairn": 6430,
      "pop": 6431,
      "unning": 6432,
      "loose": 6433,
      "istic": 6434,
      "ples": 6435,
      "152": 6436,
      "moving": 6437,
      "grass": 6438,
      "brief": 6439,
      "gling": 6440,
      "attend": 6441,
      "presently": 6442,
      "1895": 6443,
      "nights": 6444,
      "rights": 6445,
      "passage": 6446,
      "farmer": 6447,
      "Department": 6448,
      "songs": 6449,
      "fighting": 6450,
      "style": 6451,
      "journey": 6452,
      "Ak": 6453,
      "CP": 6454,
      "Cas": 6455,
      "NI": 6456,
      "Vio": 6457,
      "sides": 6458,
      "stir": 6459,
      "entit": 6460,
      "seated": 6461,
      "bever": 6462,
      "raise": 6463,
      "byterian": 6464,
      "mechan": 6465,
      "rescent": 6466,
      "collect": 6467,
      "preacher": 6468,
      "cheer": 6469,
      "evens": 6470,
      "metal": 6471,
      "Darnay": 6472,
      "basis": 6473,
      "bench": 6474,
      "solemn": 6475,
      "problems": 6476,
      "Bon": 6477,
      "Cu": 6478,
      "Os": 6479,
      "Vi": 6480,
      "cely": 6481,
      "zinc": 6482,
      "“‘": 6483,
      "orter": 6484,
      "rebel": 6485,
      "unemployment": 6486,
      "alled": 6487,
      "shed": 6488,
      "1789": 6489,
      "169": 6490,
      "ignor": 6491,
      "smith": 6492,
      "relations": 6493,
      "churchyard": 6494,
      "Because": 6495,
      "touched": 6496,
      "Workers": 6497,
      "Railways": 6498,
      "Athen": 6499,
      "Hind": 6500,
      "Ply": 6501,
      "hes": 6502,
      "pair": 6503,
      "wished": 6504,
      "anatom": 6505,
      "aring": 6506,
      "estone": 6507,
      "unspecified": 6508,
      "190": 6509,
      "covery": 6510,
      "136": 6511,
      "smell": 6512,
      "insula": 6513,
      "ARD": 6514,
      "pression": 6515,
      "drop": 6516,
      "cables": 6517,
      "wheat": 6518,
      "conversation": 6519,
      "Pitcairn": 6520,
      "Down": 6521,
      "estate": 6522,
      "output": 6523,
      "193": 6524,
      "126": 6525,
      "centuries": 6526,
      "Rev": 6527,
      "Revolution": 6528,
      "limits": 6529,
      "Colon": 6530,
      "holy": 6531,
      "Medical": 6532,
      "meaning": 6533,
      "treaty": 6534,
      "knife": 6535,
      "hanging": 6536,
      "senior": 6537,
      "treasurer": 6538,
      "inspector": 6539,
      "excellent": 6540,
      ",--": 6541,
      "JA": 6542,
      "Mah": 6543,
      "Tier": 6544,
      "Wy": 6545,
      "bin": 6546,
      "lamp": 6547,
      "vir": 6548,
      "vain": 6549,
      "threw": 6550,
      "ano": 6551,
      "imper": 6552,
      "shout": 6553,
      "eleven": 6554,
      "132": 6555,
      "138": 6556,
      "icks": 6557,
      "birds": 6558,
      "ixt": 6559,
      "effects": 6560,
      "telling": 6561,
      "shoes": 6562,
      "memorial": 6563,
      "humid": 6564,
      "Organic": 6565,
      "satisfied": 6566,
      "mentioned": 6567,
      "Conservation": 6568,
      "conscious": 6569,
      "strategic": 6570,
      "Cle": 6571,
      "Rom": 6572,
      "ky": 6573,
      "mit": 6574,
      "uese": 6575,
      "iting": 6576,
      "etary": 6577,
      "exc": 6578,
      "excess": 6579,
      "plural": 6580,
      "Maria": 6581,
      "failed": 6582,
      "headed": 6583,
      "Arctic": 6584,
      "workers": 6585,
      "value": 6586,
      "Like": 6587,
      "mainly": 6588,
      "habited": 6589,
      "eshire": 6590,
      "Portuguese": 6591,
      "spirits": 6592,
      "possession": 6593,
      "protected": 6594,
      "vehicles": 6595,
      "discuss": 6596,
      "Give": 6597,
      "IDP": 6598,
      "MIS": 6599,
      "Sperm": 6600,
      "py": 6601,
      "poul": 6602,
      "itable": 6603,
      "straw": 6604,
      "illegal": 6605,
      "chall": 6606,
      "loved": 6607,
      "fred": 6608,
      "Their": 6609,
      "eller": 6610,
      "corruption": 6611,
      "rounds": 6612,
      "windows": 6613,
      "patent": 6614,
      "commandant": 6615,
      "receive": 6616,
      "privat": 6617,
      "questions": 6618,
      "animal": 6619,
      "frequent": 6620,
      "establishment": 6621,
      "Progressive": 6622,
      "lifted": 6623,
      "Memoirs": 6624,
      "Hur": 6625,
      "KEN": 6626,
      "SS": 6627,
      "ni": 6628,
      "oh": 6629,
      "sess": 6630,
      "ateral": 6631,
      "adj": 6632,
      "acle": 6633,
      "exer": 6634,
      "cocoa": 6635,
      "displaced": 6636,
      "Univ": 6637,
      "Second": 6638,
      "relation": 6639,
      "stands": 6640,
      "supper": 6641,
      "cutta": 6642,
      "addition": 6643,
      "possibly": 6644,
      "Drum": 6645,
      "MIL": 6646,
      "prompt": 6647,
      "Illicit": 6648,
      "Calcutta": 6649,
      "terrible": 6650,
      "Young": 6651,
      "Fig": 6652,
      "FOR": 6653,
      "Over": 6654,
      "bent": 6655,
      "brown": 6656,
      "inches": 6657,
      "acity": 6658,
      "disputes": 6659,
      "Section": 6660,
      "spent": 6661,
      "deser": 6662,
      "designed": 6663,
      "Monsie": 6664,
      "Boston": 6665,
      "istress": 6666,
      "learned": 6667,
      "Liberation": 6668,
      "destroy": 6669,
      "Deputy": 6670,
      "temperate": 6671,
      "campaign": 6672,
      "architect": 6673,
      "poultry": 6674,
      "Monsieur": 6675,
      "AI": 6676,
      "EL": 6677,
      "GO": 6678,
      "een": 6679,
      "oo": 6680,
      "tutor": 6681,
      "inhabited": 6682,
      "lee": 6683,
      "chest": 6684,
      "ache": 6685,
      "compo": 6686,
      "perform": 6687,
      "iven": 6688,
      "umph": 6689,
      "formal": 6690,
      "knowing": 6691,
      "obtain": 6692,
      "obtained": 6693,
      "bird": 6694,
      "hamed": 6695,
      "pleased": 6696,
      "calling": 6697,
      "Worcester": 6698,
      "magistr": 6699,
      "Love": 6700,
      "Walter": 6701,
      "exhibition": 6702,
      "terror": 6703,
      "Shakes": 6704,
      "Gra": 6705,
      "Hal": 6706,
      "Owen": 6707,
      "Tin": 6708,
      "Was": 6709,
      "bard": 6710,
      "gment": 6711,
      "taught": 6712,
      "thrown": 6713,
      "lea": 6714,
      "christ": 6715,
      "beha": 6716,
      "177": 6717,
      "Chic": 6718,
      "146": 6719,
      "izations": 6720,
      "270": 6721,
      "acting": 6722,
      "Comp": 6723,
      "Brom": 6724,
      "missionary": 6725,
      "APO": 6726,
      "honor": 6727,
      "golden": 6728,
      "study": 6729,
      "bloody": 6730,
      "suspic": 6731,
      "beneath": 6732,
      "refined": 6733,
      "Gloucester": 6734,
      "expedition": 6735,
      "Plymouth": 6736,
      "TY": 6737,
      "Very": 6738,
      "Yu": 6739,
      "ien": 6740,
      "native": 6741,
      "pale": 6742,
      "sworn": 6743,
      "anium": 6744,
      "ille": 6745,
      "opposite": 6746,
      "weeks": 6747,
      "ternally": 6748,
      "Armed": 6749,
      "inking": 6750,
      "Republican": 6751,
      "LLM": 6752,
      "Poor": 6753,
      "example": 6754,
      "animals": 6755,
      "Steevens": 6756,
      "numerous": 6757,
      "administration": 6758,
      "entitled": 6759,
      "Ali": 6760,
      "Fort": 6761,
      "Laf": 6762,
      "MR": 6763,
      "Would": 6764,
      "mund": 6765,
      "ols": 6766,
      "trunk": 6767,
      "erected": 6768,
      "143": 6769,
      "144": 6770,
      "grim": 6771,
      "izes": 6772,
      "Lewis": 6773,
      "ashed": 6774,
      "greatly": 6775,
      "effort": 6776,
      "cornet": 6777,
      "crossed": 6778,
      "potential": 6779,
      "beside": 6780,
      "responsible": 6781,
      "strength": 6782,
      "liquefied": 6783,
      "Ell": 6784,
      "JON": 6785,
      "Nant": 6786,
      "Rac": 6787,
      "Rob": 6788,
      "Say": 6789,
      "Te": 6790,
      "game": 6791,
      "rical": 6792,
      "tear": 6793,
      "itor": 6794,
      "whaling": 6795,
      "tram": 6796,
      "protest": 6797,
      "cann": 6798,
      "erald": 6799,
      "lesh": 6800,
      "dressed": 6801,
      "Arabic": 6802,
      "pattern": 6803,
      "Harrow": 6804,
      "Lucas": 6805,
      "publisher": 6806,
      "Massa": 6807,
      "execut": 6808,
      "Windsor": 6809,
      "Fact": 6810,
      "Gini": 6811,
      "OIF": 6812,
      "QU": 6813,
      "Seb": 6814,
      "Witch": 6815,
      "ja": 6816,
      "rever": 6817,
      "lection": 6818,
      "elia": 6819,
      "mee": 6820,
      "permission": 6821,
      "quality": 6822,
      "oughts": 6823,
      "141": 6824,
      "168": 6825,
      "234": 6826,
      "Under": 6827,
      "AsDB": 6828,
      "comply": 6829,
      "Albert": 6830,
      "required": 6831,
      "expression": 6832,
      "gained": 6833,
      "literary": 6834,
      "diamonds": 6835,
      "JE": 6836,
      "bat": 6837,
      "bath": 6838,
      "bones": 6839,
      "flower": 6840,
      "decis": 6841,
      "trip": 6842,
      "noticed": 6843,
      "178": 6844,
      "drag": 6845,
      "Thou": 6846,
      "posing": 6847,
      "265": 6848,
      "Convention": 6849,
      "Alfred": 6850,
      "medium": 6851,
      "Peace": 6852,
      "Cocos": 6853,
      "1792": 6854,
      "markets": 6855,
      "swear": 6856,
      "lake": 6857,
      "models": 6858,
      "ipping": 6859,
      "tempor": 6860,
      "Distribution": 6861,
      "thirds": 6862,
      "crude": 6863,
      "bencher": 6864,
      "estimates": 6865,
      "earnest": 6866,
      "bodies": 6867,
      "Durham": 6868,
      "IDPs": 6869,
      "350": 6870,
      "Fer": 6871,
      "bold": 6872,
      "sul": 6873,
      "ites": 6874,
      "assa": 6875,
      "ilateral": 6876,
      "aste": 6877,
      "worst": 6878,
      "149": 6879,
      "droughts": 6880,
      "137": 6881,
      "rative": 6882,
      "attor": 6883,
      "singing": 6884,
      "banks": 6885,
      "falling": 6886,
      "simple": 6887,
      "crowd": 6888,
      "vertical": 6889,
      "multip": 6890,
      "harpoone": 6891,
      "sovereignty": 6892,
      "brigade": 6893,
      "Sab": 6894,
      "Since": 6895,
      "Ven": 6896,
      "crescent": 6897,
      "greg": 6898,
      "oration": 6899,
      "icester": 6900,
      "stones": 6901,
      "ado": 6902,
      "sew": 6903,
      "prosper": 6904,
      "upwards": 6905,
      "167": 6906,
      "Nothing": 6907,
      "teacher": 6908,
      "whenever": 6909,
      "scen": 6910,
      "Newcastle": 6911,
      "handsome": 6912,
      "incor": 6913,
      "rained": 6914,
      "ARR": 6915,
      "corps": 6916,
      "ADB": 6917,
      "refund": 6918,
      "Jerry": 6919,
      "provincial": 6920,
      "instrument": 6921,
      "training": 6922,
      "inquir": 6923,
      "dreadful": 6924,
      "EBRD": 6925,
      "Jacqu": 6926,
      "Power": 6927,
      "Right": 6928,
      "Sl": 6929,
      "jack": 6930,
      "rend": 6931,
      "vy": 6932,
      "institution": 6933,
      "onu": 6934,
      "alogue": 6935,
      "refr": 6936,
      "amed": 6937,
      "tering": 6938,
      "agh": 6939,
      "ours": 6940,
      "156": 6941,
      "discover": 6942,
      "discovery": 6943,
      "Unity": 6944,
      "Moore": 6945,
      "Darling": 6946,
      "Richmond": 6947,
      "steady": 6948,
      "laughing": 6949,
      "destru": 6950,
      "scription": 6951,
      "successful": 6952,
      "accepts": 6953,
      "degrees": 6954,
      "opportunity": 6955,
      "newspaper": 6956,
      "rafts": 6957,
      "criminal": 6958,
      "beverages": 6959,
      "Shakespear": 6960,
      "refriger": 6961,
      "BN": 6962,
      "BIS": 6963,
      "Cat": 6964,
      "EC": 6965,
      "fought": 6966,
      "fiscal": 6967,
      "pens": 6968,
      "invol": 6969,
      "inhabit": 6970,
      "isc": 6971,
      "inging": 6972,
      "impossible": 6973,
      "deb": 6974,
      "abs": 6975,
      "apart": 6976,
      "appoint": 6977,
      "trib": 6978,
      "pole": 6979,
      "quer": 6980,
      "qual": 6981,
      "arded": 6982,
      "171": 6983,
      "drama": 6984,
      "yours": 6985,
      "regul": 6986,
      "swift": 6987,
      "remaining": 6988,
      "Lucie": 6989,
      "experience": 6990,
      "arrangement": 6991,
      "attorney": 6992,
      "450": 6993,
      "block": 6994,
      "fare": 6995,
      "mand": 6996,
      "nel": 6997,
      "cele": 6998,
      "odd": 6999,
      "blank": 7000,
      "perce": 7001,
      "ghost": 7002,
      "sermons": 7003,
      "udd": 7004,
      "doi": 7005,
      "NATO": 7006,
      "merely": 7007,
      "163": 7008,
      "offin": 7009,
      "speed": 7010,
      "desertification": 7011,
      "ffield": 7012,
      "Edmund": 7013,
      "Sheffield": 7014,
      "gently": 7015,
      "Oceania": 7016,
      "providing": 7017,
      "promote": 7018,
      "locations": 7019,
      "traditional": 7020,
      "empty": 7021,
      "digital": 7022,
      "agreeable": 7023,
      "triangle": 7024,
      "advantage": 7025,
      "Meth": 7026,
      "Nel": 7027,
      "Nay": 7028,
      "PT": 7029,
      "Wake": 7030,
      "drown": 7031,
      "file": 7032,
      "faint": 7033,
      "iant": 7034,
      "tone": 7035,
      "vul": 7036,
      "vicar": 7037,
      "inch": 7038,
      "inadequate": 7039,
      "outer": 7040,
      "tood": 7041,
      "today": 7042,
      "owed": 7043,
      "waste": 7044,
      "abol": 7045,
      "sust": 7046,
      "keys": 7047,
      "shell": 7048,
      "apped": 7049,
      "calcul": 7050,
      "guest": 7051,
      "cris": 7052,
      "electron": 7053,
      "representing": 7054,
      "darkness": 7055,
      "Augustus": 7056,
      "increase": 7057,
      "Waterways": 7058,
      "oleon": 7059,
      "reported": 7060,
      "rapidly": 7061,
      "Jacques": 7062,
      "App": 7063,
      "Cai": 7064,
      "DI": 7065,
      "Dan": 7066,
      "Living": 7067,
      "Vat": 7068,
      "ees": 7069,
      "ike": 7070,
      "rib": 7071,
      "oral": 7072,
      "stable": 7073,
      "ira": 7074,
      "constit": 7075,
      "worthy": 7076,
      "154": 7077,
      "139": 7078,
      "rugged": 7079,
      "scale": 7080,
      "desire": 7081,
      "Democrats": 7082,
      "troops": 7083,
      "appears": 7084,
      "Trinity": 7085,
      "happiness": 7086,
      "Palmer": 7087,
      "Donald": 7088,
      "manufactured": 7089,
      "bringing": 7090,
      "matric": 7091,
      "companies": 7092,
      "surprised": 7093,
      "citizens": 7094,
      "arranged": 7095,
      "Napoleon": 7096,
      "neighboring": 7097,
      "Phillips": 7098,
      "understood": 7099,
      "Chicago": 7100,
      "Crun": 7101,
      "Fle": 7102,
      "Sav": 7103,
      "bacter": 7104,
      "dra": 7105,
      "dairy": 7106,
      "flying": 7107,
      "esley": 7108,
      "theless": 7109,
      "editions": 7110,
      "revis": 7111,
      "advent": 7112,
      "neg": 7113,
      "Independent": 7114,
      "cocon": 7115,
      "cock": 7116,
      "Anton": 7117,
      "172": 7118,
      "151": 7119,
      "grate": 7120,
      "mace": 7121,
      "thanks": 7122,
      "Confederation": 7123,
      "Regent": 7124,
      "Repub": 7125,
      "check": 7126,
      "LEY": 7127,
      "Lands": 7128,
      "cott": 7129,
      "entertain": 7130,
      "steamboat": 7131,
      "besides": 7132,
      "writer": 7133,
      "Francisco": 7134,
      "freely": 7135,
      "religion": 7136,
      "iotelephone": 7137,
      "Earl": 7138,
      "wounded": 7139,
      "celebr": 7140,
      "Cow": 7141,
      "MIN": 7142,
      "Ori": 7143,
      "waves": 7144,
      "—“": 7145,
      "ares": 7146,
      "illicit": 7147,
      "compreh": 7148,
      "quant": 7149,
      "project": 7150,
      "176": 7151,
      "159": 7152,
      "resist": 7153,
      "162": 7154,
      "cubic": 7155,
      "finished": 7156,
      "Common": 7157,
      "interior": 7158,
      "calls": 7159,
      "farm": 7160,
      "transportation": 7161,
      "buy": 7162,
      "strip": 7163,
      "Canter": 7164,
      "organized": 7165,
      "radiotelephone": 7166,
      "candle": 7167,
      "completely": 7168,
      "illustrated": 7169,
      "Retrie": 7170,
      "Vatican": 7171,
      "214": 7172,
      "Hon": 7173,
      "Hope": 7174,
      "Rog": 7175,
      "hide": 7176,
      "arc": 7177,
      "alive": 7178,
      "height": 7179,
      "conscript": 7180,
      "oping": 7181,
      "extent": 7182,
      "complex": 7183,
      "turns": 7184,
      "wants": 7185,
      "magazine": 7186,
      "hurry": 7187,
      "hurric": 7188,
      "narcot": 7189,
      "Pipelines": 7190,
      "powers": 7191,
      "explained": 7192,
      "Canterbury": 7193,
      "Camp": 7194,
      "Jar": 7195,
      "Jos": 7196,
      "Low": 7197,
      "TI": 7198,
      "gery": 7199,
      "och": 7200,
      "tale": 7201,
      "atively": 7202,
      "encies": 7203,
      "ito": 7204,
      "iri": 7205,
      "racted": 7206,
      "prize": 7207,
      "eping": 7208,
      "157": 7209,
      "doctor": 7210,
      "sons": 7211,
      "drunk": 7212,
      "servant": 7213,
      "margin": 7214,
      "Leicester": 7215,
      "courage": 7216,
      "interval": 7217,
      "collected": 7218,
      "swim": 7219,
      "showing": 7220,
      "Notting": 7221,
      "PRO": 7222,
      "watched": 7223,
      "advanced": 7224,
      "bottle": 7225,
      "districts": 7226,
      "moral": 7227,
      "Keeling": 7228,
      "Melbourne": 7229,
      "institutions": 7230,
      "apprenticed": 7231,
      "legislature": 7232,
      "Angeles": 7233,
      "conflict": 7234,
      "Cruncher": 7235,
      "CON": 7236,
      "HN": 7237,
      "MER": 7238,
      "Other": 7239,
      "Rank": 7240,
      "igne": 7241,
      "bye": 7242,
      "umped": 7243,
      "221": 7244,
      "waterborne": 7245,
      "apping": 7246,
      "setts": 7247,
      "silk": 7248,
      "destination": 7249,
      "physical": 7250,
      "Jewish": 7251,
      "Ross": 7252,
      "false": 7253,
      "chusetts": 7254,
      "Massachusetts": 7255,
      "bacterial": 7256,
      "Retrieved": 7257,
      "Bian": 7258,
      "LAN": 7259,
      "Pass": 7260,
      "cs": 7261,
      "eager": 7262,
      "hound": 7263,
      "pick": 7264,
      "pull": 7265,
      "hepat": 7266,
      "ayed": 7267,
      "vector": 7268,
      "1979": 7269,
      "haven": 7270,
      "noise": 7271,
      "landscap": 7272,
      "produce": 7273,
      "Leop": 7274,
      "1791": 7275,
      "standards": 7276,
      "diarr": 7277,
      "Only": 7278,
      "distingu": 7279,
      "promised": 7280,
      "hurst": 7281,
      "miser": 7282,
      "expressways": 7283,
      "measure": 7284,
      "accident": 7285,
      "pupil": 7286,
      "ipelago": 7287,
      "Jesus": 7288,
      "cousin": 7289,
      "anatomy": 7290,
      "hepatitis": 7291,
      "223": 7292,
      "Hear": 7293,
      "RY": 7294,
      "Wop": 7295,
      "cant": 7296,
      "kins": 7297,
      "nail": 7298,
      "aled": 7299,
      "ulous": 7300,
      "phi": 7301,
      "inted": 7302,
      "icals": 7303,
      "UNMIS": 7304,
      "Although": 7305,
      "symb": 7306,
      "lights": 7307,
      "resulted": 7308,
      "fourth": 7309,
      "Serv": 7310,
      "soldiers": 7311,
      "palm": 7312,
      "approach": 7313,
      "occasional": 7314,
      "supplies": 7315,
      "policies": 7316,
      "mistake": 7317,
      "voted": 7318,
      "license": 7319,
      "frequently": 7320,
      "scarcely": 7321,
      "Biograph": 7322,
      "despite": 7323,
      "typhoid": 7324,
      "cultivation": 7325,
      "Wopsle": 7326,
      "320": 7327,
      "Avon": 7328,
      "Pot": 7329,
      "SD": 7330,
      "Sid": 7331,
      "bol": 7332,
      "dale": 7333,
      "pill": 7334,
      "vations": 7335,
      "wides": 7336,
      "arter": 7337,
      "stal": 7338,
      "ropolit": 7339,
      "oly": 7340,
      "ird": 7341,
      "unal": 7342,
      "agement": 7343,
      "pron": 7344,
      "pride": 7345,
      "198": 7346,
      "proport": 7347,
      "butter": 7348,
      "marble": 7349,
      "Security": 7350,
      "UND": 7351,
      "species": 7352,
      "distinct": 7353,
      "Israeli": 7354,
      "colony": 7355,
      "sugarcane": 7356,
      "storm": 7357,
      "conducted": 7358,
      "instance": 7359,
      "gradually": 7360,
      "telecommunications": 7361,
      "completed": 7362,
      "strike": 7363,
      "asylum": 7364,
      "Rayonu": 7365,
      "performance": 7366,
      "Factbook": 7367,
      "Shakespeare": 7368,
      "diarrhea": 7369,
      "widespread": 7370,
      "Four": 7371,
      "Jac": 7372,
      "VE": 7373,
      "Wool": 7374,
      "ais": 7375,
      "tired": 7376,
      "vic": 7377,
      "inian": 7378,
      "internally": 7379,
      "stro": 7380,
      "chin": 7381,
      "197": 7382,
      "antiqu": 7383,
      "coax": 7384,
      "ially": 7385,
      "201": 7386,
      "203": 7387,
      "lowing": 7388,
      "offer": 7389,
      "News": 7390,
      "Nova": 7391,
      "guine": 7392,
      "depends": 7393,
      "purposes": 7394,
      "magn": 7395,
      "promise": 7396,
      "watching": 7397,
      "mortal": 7398,
      "distributing": 7399,
      "connection": 7400,
      "monarchy": 7401,
      "fifteen": 7402,
      "dogs": 7403,
      "iliar": 7404,
      "telegraph": 7405,
      "1990s": 7406,
      "travelled": 7407,
      "Hyde": 7408,
      "forgotten": 7409,
      "earthquakes": 7410,
      "deposits": 7411,
      "vectorborne": 7412,
      "Era": 7413,
      "Know": 7414,
      "Lar": 7415,
      "Sval": 7416,
      "aun": 7417,
      "bows": 7418,
      "dial": 7419,
      "tied": 7420,
      "thunder": 7421,
      "reelected": 7422,
      "lease": 7423,
      "conven": 7424,
      "orte": 7425,
      "173": 7426,
      "somehow": 7427,
      "forehead": 7428,
      "spout": 7429,
      "periodic": 7430,
      "controls": 7431,
      "motion": 7432,
      "biography": 7433,
      "global": 7434,
      "splend": 7435,
      "escape": 7436,
      "couple": 7437,
      "JONES": 7438,
      "Svalbard": 7439,
      "215": 7440,
      "Bes": 7441,
      "Bre": 7442,
      "LU": 7443,
      "Mall": 7444,
      "Ped": 7445,
      "dance": 7446,
      "nd": 7447,
      "nie": 7448,
      "rus": 7449,
      "ux": 7450,
      "infant": 7451,
      "atly": 7452,
      "stuck": 7453,
      "eston": 7454,
      "emper": 7455,
      "agan": 7456,
      "deacon": 7457,
      "printer": 7458,
      "appeal": 7459,
      "lose": 7460,
      "poem": 7461,
      "proc": 7462,
      "Any": 7463,
      "1788": 7464,
      "dozen": 7465,
      "committed": 7466,
      "222": 7467,
      "limestone": 7468,
      "342": 7469,
      "repair": 7470,
      "Perth": 7471,
      "Benj": 7472,
      "About": 7473,
      "madam": 7474,
      "figures": 7475,
      "mountainous": 7476,
      "flew": 7477,
      "acquaintance": 7478,
      "vessel": 7479,
      "recommend": 7480,
      "refrigerated": 7481,
      "360": 7482,
      "Grow": 7483,
      "aide": 7484,
      "cad": 7485,
      "gather": 7486,
      "ioc": 7487,
      "mistress": 7488,
      "pite": 7489,
      "sbury": 7490,
      "uct": 7491,
      "zo": 7492,
      "asser": 7493,
      "rob": 7494,
      "amen": 7495,
      "conserv": 7496,
      "manners": 7497,
      "aks": 7498,
      "somewhere": 7499,
      "gency": 7500,
      "prem": 7501,
      "producer": 7502,
      "seek": 7503,
      "spare": 7504,
      "diale": 7505,
      "ACCT": 7506,
      "bookseller": 7507,
      "principles": 7508,
      "approxim": 7509,
      "touching": 7510,
      "companion": 7511,
      "estimated": 7512,
      "pulled": 7513,
      "welcome": 7514,
      "thinks": 7515,
      "philosophy": 7516,
      "dragoons": 7517,
      "Bedford": 7518,
      "behavi": 7519,
      "Cir": 7520,
      "Il": 7521,
      "Mission": 7522,
      "bay": 7523,
      "bore": 7524,
      "dull": 7525,
      "flesh": 7526,
      "nick": 7527,
      "eding": 7528,
      "itary": 7529,
      "itarian": 7530,
      "oted": 7531,
      "195": 7532,
      "pers": 7533,
      "umes": 7534,
      "209": 7535,
      "232": 7536,
      "extended": 7537,
      "firmed": 7538,
      "preb": 7539,
      "powerful": 7540,
      "sorrow": 7541,
      "Highgate": 7542,
      "containing": 7543,
      "drinking": 7544,
      "Satur": 7545,
      "magistrate": 7546,
      "narcotics": 7547,
      "IB": 7548,
      "baux": 7549,
      "gloom": 7550,
      "toss": 7551,
      "181": 7552,
      "imposed": 7553,
      "beast": 7554,
      "rah": 7555,
      "usal": 7556,
      "196": 7557,
      "Uncle": 7558,
      "buried": 7559,
      "glance": 7560,
      "content": 7561,
      "260": 7562,
      "IDB": 7563,
      "rels": 7564,
      "LLO": 7565,
      "signatory": 7566,
      "valley": 7567,
      "familiar": 7568,
      "Once": 7569,
      "request": 7570,
      "sisters": 7571,
      "expressed": 7572,
      "Princess": 7573,
      "rules": 7574,
      "Appeal": 7575,
      "eBooks": 7576,
      "vehicle": 7577,
      "previous": 7578,
      "features": 7579,
      "bauxite": 7580,
      "KH": 7581,
      "Tis": 7582,
      "bought": 7583,
      "dart": 7584,
      "swell": 7585,
      "tier": 7586,
      "ware": 7587,
      "yield": 7588,
      "yester": 7589,
      "ende": 7590,
      "alum": 7591,
      "ouch": 7592,
      "iture": 7593,
      "seized": 7594,
      "amended": 7595,
      "lyn": 7596,
      "conse": 7597,
      "absol": 7598,
      "exas": 7599,
      "1989": 7600,
      "saved": 7601,
      "174": 7602,
      "photo": 7603,
      "Stan": 7604,
      "ordained": 7605,
      "226": 7606,
      "queer": 7607,
      "northeast": 7608,
      "Major": 7609,
      "slav": 7610,
      "Southeast": 7611,
      "interesting": 7612,
      "evident": 7613,
      "supply": 7614,
      "experiment": 7615,
      "Gardiner": 7616,
      "commissioner": 7617,
      "JOHN": 7618,
      "vacant": 7619,
      "Leopold": 7620,
      "Benjamin": 7621,
      "Fair": 7622,
      "OT": 7623,
      "coffin": 7624,
      "grain": 7625,
      "moun": 7626,
      "maker": 7627,
      "antry": 7628,
      "inno": 7629,
      "altogether": 7630,
      "isk": 7631,
      "seigne": 7632,
      "uranium": 7633,
      "emigr": 7634,
      "exclaimed": 7635,
      "managed": 7636,
      "1975": 7637,
      "persist": 7638,
      "clas": 7639,
      "dissol": 7640,
      "ratt": 7641,
      "brook": 7642,
      "chiefly": 7643,
      "struct": 7644,
      "passion": 7645,
      "APC": 7646,
      "laying": 7647,
      "fallen": 7648,
      "constructed": 7649,
      "declined": 7650,
      "subjects": 7651,
      "STE": 7652,
      "Wildlife": 7653,
      "inhabitants": 7654,
      "consecr": 7655,
      "seigneur": 7656,
      "Bor": 7657,
      "Id": 7658,
      "LP": 7659,
      "Nav": 7660,
      "PI": 7661,
      "Stry": 7662,
      "dict": 7663,
      "gam": 7664,
      "stance": 7665,
      "heat": 7666,
      "urs": 7667,
      "ott": 7668,
      "abroad": 7669,
      "opium": 7670,
      "frame": 7671,
      "prove": 7672,
      "proposed": 7673,
      "protection": 7674,
      "ardon": 7675,
      "anta": 7676,
      "ause": 7677,
      "awn": 7678,
      "knowed": 7679,
      "screw": 7680,
      "governing": 7681,
      "household": 7682,
      "guide": 7683,
      "Monseigneur": 7684,
      "waited": 7685,
      "delim": 7686,
      "learning": 7687,
      "specialized": 7688,
      "guns": 7689,
      "Agre": 7690,
      "customary": 7691,
      "sacred": 7692,
      "historical": 7693,
      "ropolitan": 7694,
      "Jacob": 7695,
      "Saturday": 7696,
      "440": 7697,
      "Edu": 7698,
      "Put": 7699,
      "Son": 7700,
      "bare": 7701,
      "fi": 7702,
      "iate": 7703,
      "mous": 7704,
      "nest": 7705,
      "wreck": 7706,
      "onian": 7707,
      "theory": 7708,
      "strict": 7709,
      "enty": 7710,
      "19th": 7711,
      "ept": 7712,
      "bosom": 7713,
      "Whaling": 7714,
      "drought": 7715,
      "driven": 7716,
      "Thus": 7717,
      "gler": 7718,
      "regime": 7719,
      "compu": 7720,
      "lightning": 7721,
      "Police": 7722,
      "cession": 7723,
      "resulting": 7724,
      "organizations": 7725,
      "quarters": 7726,
      "demon": 7727,
      "damage": 7728,
      "rubber": 7729,
      "uttered": 7730,
      "democratic": 7731,
      "votes": 7732,
      "liberal": 7733,
      "Haymarket": 7734,
      "Gentle": 7735,
      "Winchester": 7736,
      "composer": 7737,
      "Nelson": 7738,
      "Stryver": 7739,
      "224": 7740,
      "AH": 7741,
      "During": 7742,
      "Danish": 7743,
      "Fe": 7744,
      "Kings": 7745,
      "KIN": 7746,
      "Sub": 7747,
      "dying": 7748,
      "sperm": 7749,
      "witch": 7750,
      "university": 7751,
      "192": 7752,
      "proof": 7753,
      "1787": 7754,
      "phan": 7755,
      "2025": 7756,
      "research": 7757,
      "anywhere": 7758,
      "dock": 7759,
      "willing": 7760,
      "Norwich": 7761,
      "Johnston": 7762,
      "actor": 7763,
      "spite": 7764,
      "hammer": 7765,
      "ashes": 7766,
      "ISBN": 7767,
      "Brad": 7768,
      "Northampton": 7769,
      "reply": 7770,
      "Perhaps": 7771,
      "Allan": 7772,
      "hearing": 7773,
      "Notes": 7774,
      "southwest": 7775,
      "freedom": 7776,
      "Andrews": 7777,
      "plateau": 7778,
      "prepared": 7779,
      "MONUC": 7780,
      "yesterday": 7781,
      "Agreement": 7782,
      "218": 7783,
      "213": 7784,
      "540": 7785,
      "ED": 7786,
      "LES": 7787,
      "Lizz": 7788,
      "Sher": 7789,
      "Turn": 7790,
      "VA": 7791,
      "cious": 7792,
      "coup": 7793,
      "horn": 7794,
      "lun": 7795,
      "rence": 7796,
      "tun": 7797,
      "tford": 7798,
      "wig": 7799,
      "inal": 7800,
      "hell": 7801,
      "chess": 7802,
      "sevent": 7803,
      "imate": 7804,
      "lym": 7805,
      "prud": 7806,
      "orted": 7807,
      "elling": 7808,
      "1952": 7809,
      "indif": 7810,
      "phr": 7811,
      "counten": 7812,
      "irect": 7813,
      "229": 7814,
      "apply": 7815,
      "ashore": 7816,
      "restored": 7817,
      "enna": 7818,
      "Flask": 7819,
      "baby": 7820,
      "viathan": 7821,
      "clergy": 7822,
      "brains": 7823,
      "malaria": 7824,
      "refining": 7825,
      "remarkable": 7826,
      "labour": 7827,
      "Brompton": 7828,
      "340": 7829,
      "Az": 7830,
      "Wat": 7831,
      "Wol": 7832,
      "evil": 7833,
      "gom": 7834,
      "hence": 7835,
      "iast": 7836,
      "lington": 7837,
      "site": 7838,
      "anes": 7839,
      "theastern": 7840,
      "edition": 7841,
      "het": 7842,
      "aye": 7843,
      "ida": 7844,
      "beans": 7845,
      "whist": 7846,
      "degrad": 7847,
      "sham": 7848,
      "compr": 7849,
      "udes": 7850,
      "235": 7851,
      "iley": 7852,
      "capacity": 7853,
      "Malone": 7854,
      "Coal": 7855,
      "Colle": 7856,
      "corder": 7857,
      "slaves": 7858,
      "doub": 7859,
      "ronicle": 7860,
      "reservations": 7861,
      "kerchief": 7862,
      "stepped": 7863,
      "commerce": 7864,
      "daily": 7865,
      "Peninsula": 7866,
      "intelligence": 7867,
      "Welsh": 7868,
      "Daily": 7869,
      "privatization": 7870,
      "Rachel": 7871,
      "Nottingham": 7872,
      "coaxial": 7873,
      "consecrated": 7874,
      "Aunt": 7875,
      "Bow": 7876,
      "Olym": 7877,
      "PM": 7878,
      "Pre": 7879,
      "bask": 7880,
      "oke": 7881,
      "rated": 7882,
      "wicked": 7883,
      "anal": 7884,
      "ilies": 7885,
      "becomes": 7886,
      "convey": 7887,
      "aband": 7888,
      "oped": 7889,
      "loyd": 7890,
      "persu": 7891,
      "goslav": 7892,
      "208": 7893,
      "164": 7894,
      "mathem": 7895,
      "servants": 7896,
      "offered": 7897,
      "posal": 7898,
      "inced": 7899,
      "monu": 7900,
      "Constant": 7901,
      "anned": 7902,
      "plays": 7903,
      "doesn": 7904,
      "southeast": 7905,
      "creation": 7906,
      "tourist": 7907,
      "Deputies": 7908,
      "crying": 7909,
      "satisfaction": 7910,
      "colours": 7911,
      "thodox": 7912,
      "protect": 7913,
      "poetry": 7914,
      "whispered": 7915,
      "Refugees": 7916,
      "issued": 7917,
      "nominated": 7918,
      "978": 7919,
      ";—": 7920,
      "Gall": 7921,
      "Mit": 7922,
      "YOU": 7923,
      "ci": 7924,
      "dar": 7925,
      "dign": 7926,
      "fra": 7927,
      "lut": 7928,
      "ram": 7929,
      "vous": 7930,
      "wret": 7931,
      "inum": 7932,
      "chos": 7933,
      "concent": 7934,
      "trial": 7935,
      "performed": 7936,
      "umed": 7937,
      "plates": 7938,
      "inton": 7939,
      "minim": 7940,
      "257": 7941,
      "capable": 7942,
      "UNMIL": 7943,
      "cuse": 7944,
      "lightly": 7945,
      "steep": 7946,
      "brevi": 7947,
      "END": 7948,
      "listened": 7949,
      "forests": 7950,
      "Hereford": 7951,
      "widely": 7952,
      "fertil": 7953,
      "Kitty": 7954,
      "funeral": 7955,
      "Florence": 7956,
      "requirements": 7957,
      "reduced": 7958,
      "219": 7959,
      "Embass": 7960,
      "Huck": 7961,
      "Iles": 7962,
      "Lene": 7963,
      "Mess": 7964,
      "Must": 7965,
      "Tam": 7966,
      "ror": 7967,
      "voc": 7968,
      "roof": 7969,
      "amid": 7970,
      "rable": 7971,
      "raising": 7972,
      "accur": 7973,
      "essay": 7974,
      "plans": 7975,
      "plants": 7976,
      "Head": 7977,
      "parent": 7978,
      "rene": 7979,
      "280": 7980,
      "spects": 7981,
      "ashire": 7982,
      "maybe": 7983,
      "ceded": 7984,
      "join": 7985,
      "wake": 7986,
      "waist": 7987,
      "Sermons": 7988,
      "lords": 7989,
      "Committee": 7990,
      "assisted": 7991,
      "professional": 7992,
      "statue": 7993,
      "importance": 7994,
      "described": 7995,
      "measures": 7996,
      "sailor": 7997,
      "executive": 7998,
      "Lancashire": 7999
    },
    "merges": [
      [
        "t",
        "h"
      ],
      [
        "a",
        "n"
      ],
      [
        "e",
        "r"
      ],
      [
        "i",
        "n"
      ],
      [
        "o",
        "n"
      ],
      [
        "e",
        "s"
      ],
      [
        "th",
        "e"
      ],
      [
        "a",
        "t"
      ],
      [
        "o",
        "r"
      ],
      [
        "e",
        "n"
      ],
      [
        "a",
        "r"
      ],
      [
        "a",
        "l"
      ],
      [
        "e",
        "d"
      ],
      [
        "an",
        "d"
      ],
      [
        "o",
        "f"
      ],
      [
        "o",
        "u"
      ],
      [
        "i",
        "s"
      ],
      [
        "i",
        "t"
      ],
      [
        "a",
        "s"
      ],
      [
        "t",
        "o"
      ],
      [
        "0",
        "0"
      ],
      [
        "1",
        "8"
      ],
      [
        "in",
        "g"
      ],
      [
        "r",
        "e"
      ],
      [
        "i",
        "c"
      ],
      [
        "i",
        "on"
      ],
      [
        "l",
        "e"
      ],
      [
        "s",
        "t"
      ],
      [
        "i",
        "l"
      ],
      [
        "o",
        "m"
      ],
      [
        "h",
        "e"
      ],
      [
        "en",
        "t"
      ],
      [
        "a",
        "d"
      ],
      [
        "e",
        "l"
      ],
      [
        "c",
        "h"
      ],
      [
        "2",
        "00"
      ],
      [
        "r",
        "o"
      ],
      [
        "es",
        "t"
      ],
      [
        "o",
        "l"
      ],
      [
        "s",
        "e"
      ],
      [
        "c",
        "t"
      ],
      [
        "f",
        "or"
      ],
      [
        "u",
        "r"
      ],
      [
        "a",
        "m"
      ],
      [
        "i",
        "m"
      ],
      [
        "a",
        "y"
      ],
      [
        "o",
        "w"
      ],
      [
        "i",
        "d"
      ],
      [
        "i",
        "r"
      ],
      [
        "c",
        "e"
      ],
      [
        "b",
        "e"
      ],
      [
        "u",
        "n"
      ],
      [
        "v",
        "er"
      ],
      [
        "i",
        "g"
      ],
      [
        "t",
        "er"
      ],
      [
        "=",
        "="
      ],
      [
        "v",
        "e"
      ],
      [
        "l",
        "y"
      ],
      [
        "u",
        "t"
      ],
      [
        "o",
        "t"
      ],
      [
        "at",
        "ion"
      ],
      [
        "e",
        "m"
      ],
      [
        "w",
        "h"
      ],
      [
        "a",
        "g"
      ],
      [
        "r",
        "a"
      ],
      [
        "d",
        "e"
      ],
      [
        "u",
        "l"
      ],
      [
        "i",
        "th"
      ],
      [
        "e",
        "t"
      ],
      [
        "c",
        "on"
      ],
      [
        "il",
        "l"
      ],
      [
        "th",
        "er"
      ],
      [
        "w",
        "as"
      ],
      [
        "w",
        "ith"
      ],
      [
        "p",
        "r"
      ],
      [
        "a",
        "b"
      ],
      [
        "th",
        "at"
      ],
      [
        "ou",
        "n"
      ],
      [
        "a",
        "p"
      ],
      [
        "al",
        "l"
      ],
      [
        "i",
        "a"
      ],
      [
        "h",
        "is"
      ],
      [
        "b",
        "y"
      ],
      [
        "o",
        "p"
      ],
      [
        "e",
        "ar"
      ],
      [
        "s",
        "h"
      ],
      [
        "l",
        "i"
      ],
      [
        "ou",
        "r"
      ],
      [
        "l",
        "o"
      ],
      [
        ".",
        ")"
      ],
      [
        "a",
        "in"
      ],
      [
        "a",
        "c"
      ],
      [
        "u",
        "s"
      ],
      [
        "t",
        "r"
      ],
      [
        "ig",
        "h"
      ],
      [
        "e",
        "x"
      ],
      [
        "l",
        "d"
      ],
      [
        "es",
        "s"
      ],
      [
        "f",
        "r"
      ],
      [
        "h",
        "er"
      ],
      [
        "l",
        "and"
      ],
      [
        "o",
        "d"
      ],
      [
        "on",
        "e"
      ],
      [
        "or",
        "t"
      ],
      [
        "==",
        "=="
      ],
      [
        "c",
        "om"
      ],
      [
        "T",
        "he"
      ],
      [
        "b",
        "er"
      ],
      [
        "ar",
        "t"
      ],
      [
        "200",
        "5"
      ],
      [
        "s",
        "u"
      ],
      [
        "n",
        "ot"
      ],
      [
        "y",
        "ou"
      ],
      [
        "at",
        "e"
      ],
      [
        "i",
        "f"
      ],
      [
        "m",
        "an"
      ],
      [
        "al",
        "e"
      ],
      [
        "g",
        "e"
      ],
      [
        "ou",
        "t"
      ],
      [
        "k",
        "e"
      ],
      [
        "p",
        "o"
      ],
      [
        "n",
        "e"
      ],
      [
        "el",
        "l"
      ],
      [
        "1",
        "9"
      ],
      [
        "s",
        "o"
      ],
      [
        "b",
        "l"
      ],
      [
        "m",
        "e"
      ],
      [
        "h",
        "a"
      ],
      [
        "p",
        "er"
      ],
      [
        "q",
        "u"
      ],
      [
        "p",
        "ro"
      ],
      [
        "ar",
        "d"
      ],
      [
        "p",
        "e"
      ],
      [
        "as",
        "t"
      ],
      [
        "igh",
        "t"
      ],
      [
        "m",
        "ent"
      ],
      [
        "g",
        "h"
      ],
      [
        "g",
        "o"
      ],
      [
        "an",
        "t"
      ],
      [
        "18",
        "5"
      ],
      [
        "is",
        "t"
      ],
      [
        "en",
        "d"
      ],
      [
        "00",
        "0"
      ],
      [
        "u",
        "st"
      ],
      [
        "I",
        "n"
      ],
      [
        "u",
        "p"
      ],
      [
        "200",
        "6"
      ],
      [
        "is",
        "h"
      ],
      [
        "y",
        "ear"
      ],
      [
        "i",
        "p"
      ],
      [
        "ar",
        "y"
      ],
      [
        "e",
        "p"
      ],
      [
        "fr",
        "om"
      ],
      [
        "i",
        "v"
      ],
      [
        "ou",
        "ld"
      ],
      [
        "a",
        "u"
      ],
      [
        "ar",
        "e"
      ],
      [
        "b",
        "ut"
      ],
      [
        "h",
        "ad"
      ],
      [
        "18",
        "6"
      ],
      [
        "c",
        "o"
      ],
      [
        "on",
        "g"
      ],
      [
        "i",
        "es"
      ],
      [
        "er",
        "s"
      ],
      [
        "p",
        "ort"
      ],
      [
        "s",
        "a"
      ],
      [
        "er",
        "e"
      ],
      [
        "18",
        "4"
      ],
      [
        "it",
        "y"
      ],
      [
        "h",
        "im"
      ],
      [
        "u",
        "m"
      ],
      [
        "e",
        "le"
      ],
      [
        "p",
        "l"
      ],
      [
        "i",
        "an"
      ],
      [
        "A",
        "n"
      ],
      [
        "i",
        "ve"
      ],
      [
        "m",
        "y"
      ],
      [
        "in",
        "e"
      ],
      [
        "d",
        "er"
      ],
      [
        "ct",
        "ion"
      ],
      [
        "1",
        "7"
      ],
      [
        "ag",
        "e"
      ],
      [
        "a",
        "th"
      ],
      [
        "1",
        "0"
      ],
      [
        "18",
        "7"
      ],
      [
        "o",
        "k"
      ],
      [
        "ou",
        "gh"
      ],
      [
        "w",
        "e"
      ],
      [
        "i",
        "al"
      ],
      [
        "in",
        "d"
      ],
      [
        "i",
        "e"
      ],
      [
        "o",
        "ther"
      ],
      [
        "C",
        "h"
      ],
      [
        "c",
        "l"
      ],
      [
        "w",
        "or"
      ],
      [
        "ill",
        "ion"
      ],
      [
        "s",
        "er"
      ],
      [
        "18",
        "3"
      ],
      [
        "year",
        "s"
      ],
      [
        "ic",
        "h"
      ],
      [
        "k",
        "m"
      ],
      [
        "n",
        "o"
      ],
      [
        "1",
        "5"
      ],
      [
        "oun",
        "d"
      ],
      [
        "%",
        ","
      ],
      [
        "w",
        "ay"
      ],
      [
        "p",
        "h"
      ],
      [
        "S",
        "t"
      ],
      [
        "ha",
        "ve"
      ],
      [
        "n",
        "ow"
      ],
      [
        "o",
        "ver"
      ],
      [
        "f",
        "e"
      ],
      [
        "c",
        "k"
      ],
      [
        "2",
        "0"
      ],
      [
        "t",
        "al"
      ],
      [
        "om",
        "e"
      ],
      [
        "r",
        "es"
      ],
      [
        "a",
        "v"
      ],
      [
        "s",
        "he"
      ],
      [
        "u",
        "d"
      ],
      [
        "an",
        "y"
      ],
      [
        "1",
        "4"
      ],
      [
        "a",
        "k"
      ],
      [
        ")",
        ","
      ],
      [
        "d",
        "o"
      ],
      [
        "200",
        "3"
      ],
      [
        "ou",
        "s"
      ],
      [
        "d",
        "on"
      ],
      [
        "ic",
        "e"
      ],
      [
        "r",
        "an"
      ],
      [
        "M",
        "ar"
      ],
      [
        "am",
        "e"
      ],
      [
        "as",
        "s"
      ],
      [
        "====",
        "===="
      ],
      [
        "or",
        "e"
      ],
      [
        "b",
        "o"
      ],
      [
        "W",
        "h"
      ],
      [
        "p",
        "art"
      ],
      [
        "I",
        "s"
      ],
      [
        "c",
        "ol"
      ],
      [
        "in",
        "t"
      ],
      [
        "ic",
        "al"
      ],
      [
        "18",
        "8"
      ],
      [
        "im",
        "e"
      ],
      [
        "s",
        "on"
      ],
      [
        "r",
        "y"
      ],
      [
        "u",
        "re"
      ],
      [
        "th",
        "is"
      ],
      [
        "1",
        "2"
      ],
      [
        "c",
        "oun"
      ],
      [
        "m",
        "o"
      ],
      [
        "f",
        "em"
      ],
      [
        "D",
        "e"
      ],
      [
        "i",
        "b"
      ],
      [
        "g",
        "r"
      ],
      [
        "o",
        "c"
      ],
      [
        "at",
        "ed"
      ],
      [
        "ol",
        "d"
      ],
      [
        "N",
        "A"
      ],
      [
        "sa",
        "id"
      ],
      [
        ")",
        "."
      ],
      [
        "en",
        "ce"
      ],
      [
        "m",
        "er"
      ],
      [
        "ow",
        "n"
      ],
      [
        "wh",
        "ich"
      ],
      [
        "w",
        "ere"
      ],
      [
        "ro",
        "w"
      ],
      [
        "d",
        "r"
      ],
      [
        "i",
        "re"
      ],
      [
        "1",
        "6"
      ],
      [
        ".",
        "”"
      ],
      [
        "pr",
        "es"
      ],
      [
        "de",
        "ath"
      ],
      [
        "1",
        "3"
      ],
      [
        "d",
        "u"
      ],
      [
        "t",
        "on"
      ],
      [
        "d",
        "ay"
      ],
      [
        "it",
        "e"
      ],
      [
        "u",
        "bl"
      ],
      [
        "f",
        "a"
      ],
      [
        "d",
        "is"
      ],
      [
        "ther",
        "e"
      ],
      [
        "the",
        "y"
      ],
      [
        "land",
        "s"
      ],
      [
        "m",
        "a"
      ],
      [
        "ac",
        "k"
      ],
      [
        "ab",
        "le"
      ],
      [
        "r",
        "u"
      ],
      [
        "18",
        "2"
      ],
      [
        "ation",
        "al"
      ],
      [
        "fem",
        "ale"
      ],
      [
        "a",
        "f"
      ],
      [
        "th",
        "ing"
      ],
      [
        "ul",
        "t"
      ],
      [
        "m",
        "ale"
      ],
      [
        "l",
        "l"
      ],
      [
        "l",
        "ow"
      ],
      [
        "o",
        "s"
      ],
      [
        "T",
        "h"
      ],
      [
        "ver",
        "y"
      ],
      [
        "op",
        "ul"
      ],
      [
        "r",
        "i"
      ],
      [
        "it",
        "s"
      ],
      [
        "to",
        "tal"
      ],
      [
        "a",
        "w"
      ],
      [
        "ic",
        "k"
      ],
      [
        "N",
        "e"
      ],
      [
        "re",
        "e"
      ],
      [
        "N",
        "o"
      ],
      [
        "ser",
        "v"
      ],
      [
        "J",
        "o"
      ],
      [
        "m",
        "in"
      ],
      [
        "t",
        "e"
      ],
      [
        "of",
        "f"
      ],
      [
        "ig",
        "n"
      ],
      [
        "i",
        "z"
      ],
      [
        "the",
        "m"
      ],
      [
        "M",
        "r"
      ],
      [
        "is",
        "s"
      ],
      [
        "wh",
        "en"
      ],
      [
        "L",
        "on"
      ],
      [
        "or",
        "d"
      ],
      [
        "ter",
        "n"
      ],
      [
        "s",
        "ome"
      ],
      [
        "Lon",
        "don"
      ],
      [
        "c",
        "an"
      ],
      [
        "id",
        "e"
      ],
      [
        "it",
        "t"
      ],
      [
        "H",
        "e"
      ],
      [
        "w",
        "o"
      ],
      [
        "m",
        "ar"
      ],
      [
        "w",
        "ould"
      ],
      [
        "for",
        "m"
      ],
      [
        "u",
        "g"
      ],
      [
        "an",
        "g"
      ],
      [
        "p",
        "t"
      ],
      [
        "t",
        "ain"
      ],
      [
        "19",
        "9"
      ],
      [
        "v",
        "en"
      ],
      [
        "er",
        "al"
      ],
      [
        "2",
        "3"
      ],
      [
        "c",
        "ent"
      ],
      [
        "u",
        "e"
      ],
      [
        "s",
        "el"
      ],
      [
        "un",
        "der"
      ],
      [
        "an",
        "s"
      ],
      [
        "p",
        "opul"
      ],
      [
        "ct",
        "ed"
      ],
      [
        "ation",
        "s"
      ],
      [
        "re",
        "at"
      ],
      [
        "un",
        "e"
      ],
      [
        "re",
        "t"
      ],
      [
        "2",
        "4"
      ],
      [
        "1",
        "1"
      ],
      [
        "200",
        "4"
      ],
      [
        "at",
        "es"
      ],
      [
        "ad",
        "e"
      ],
      [
        "id",
        "ent"
      ],
      [
        "com",
        "m"
      ],
      [
        "t",
        "y"
      ],
      [
        "en",
        "s"
      ],
      [
        ",",
        "”"
      ],
      [
        "for",
        "e"
      ],
      [
        "k",
        "now"
      ],
      [
        "b",
        "illion"
      ],
      [
        "E",
        "n"
      ],
      [
        "wh",
        "o"
      ],
      [
        "J",
        "u"
      ],
      [
        "p",
        "ar"
      ],
      [
        "b",
        "r"
      ],
      [
        "o",
        "g"
      ],
      [
        "ou",
        "th"
      ],
      [
        "r",
        "it"
      ],
      [
        "l",
        "es"
      ],
      [
        "ab",
        "out"
      ],
      [
        "M",
        "ay"
      ],
      [
        "at",
        "er"
      ],
      [
        "2",
        "5"
      ],
      [
        "is",
        "ter"
      ],
      [
        "3",
        "0"
      ],
      [
        "U",
        "S"
      ],
      [
        "an",
        "c"
      ],
      [
        "i",
        "le"
      ],
      [
        "it",
        "ed"
      ],
      [
        "r",
        "ic"
      ],
      [
        "f",
        "ul"
      ],
      [
        "p",
        "end"
      ],
      [
        "be",
        "en"
      ],
      [
        "em",
        "ber"
      ],
      [
        "tr",
        "y"
      ],
      [
        "U",
        "n"
      ],
      [
        "an",
        "ce"
      ],
      [
        "Ju",
        "ly"
      ],
      [
        "h",
        "as"
      ],
      [
        "y",
        "our"
      ],
      [
        "the",
        "ir"
      ],
      [
        "in",
        "to"
      ],
      [
        "ex",
        "t"
      ],
      [
        "it",
        "ion"
      ],
      [
        "b",
        "ur"
      ],
      [
        "e",
        "b"
      ],
      [
        "th",
        "an"
      ],
      [
        "f",
        "ir"
      ],
      [
        "m",
        "illion"
      ],
      [
        "s",
        "ay"
      ],
      [
        "he",
        "ad"
      ],
      [
        "An",
        "d"
      ],
      [
        "s",
        "c"
      ],
      [
        "P",
        "ro"
      ],
      [
        "t",
        "ime"
      ],
      [
        ")",
        ";"
      ],
      [
        "m",
        "ore"
      ],
      [
        "ubl",
        "ic"
      ],
      [
        "a",
        "ch"
      ],
      [
        "or",
        "y"
      ],
      [
        "port",
        "s"
      ],
      [
        "the",
        "n"
      ],
      [
        "o",
        "b"
      ],
      [
        "k",
        "s"
      ],
      [
        "her",
        "e"
      ],
      [
        "c",
        "ap"
      ],
      [
        "wh",
        "at"
      ],
      [
        "c",
        "ould"
      ],
      [
        "j",
        "e"
      ],
      [
        "po",
        "int"
      ],
      [
        "w",
        "ill"
      ],
      [
        "J",
        "une"
      ],
      [
        "el",
        "y"
      ],
      [
        "i",
        "ed"
      ],
      [
        "4",
        "9"
      ],
      [
        "r",
        "en"
      ],
      [
        "il",
        "it"
      ],
      [
        "ur",
        "al"
      ],
      [
        "po",
        "s"
      ],
      [
        "or",
        "n"
      ],
      [
        "Mar",
        "ch"
      ],
      [
        "g",
        "en"
      ],
      [
        "f",
        "er"
      ],
      [
        "mo",
        "st"
      ],
      [
        "sel",
        "f"
      ],
      [
        "g",
        "l"
      ],
      [
        "r",
        "at"
      ],
      [
        "2",
        "2"
      ],
      [
        "r",
        "ate"
      ],
      [
        "p",
        "re"
      ],
      [
        "f",
        "l"
      ],
      [
        "h",
        "n"
      ],
      [
        "l",
        "ast"
      ],
      [
        "pro",
        "du"
      ],
      [
        "I",
        "t"
      ],
      [
        "l",
        "ong"
      ],
      [
        "l",
        "ar"
      ],
      [
        "popul",
        "ation"
      ],
      [
        "Ne",
        "w"
      ],
      [
        "L",
        "e"
      ],
      [
        "ver",
        "n"
      ],
      [
        "N",
        "or"
      ],
      [
        "ou",
        "se"
      ],
      [
        "a",
        "ir"
      ],
      [
        "A",
        "s"
      ],
      [
        "S",
        "e"
      ],
      [
        "con",
        "t"
      ],
      [
        "U",
        "N"
      ],
      [
        "con",
        "om"
      ],
      [
        "lo",
        "ok"
      ],
      [
        "Jo",
        "hn"
      ],
      [
        "li",
        "ke"
      ],
      [
        "A",
        "r"
      ],
      [
        "B",
        "ut"
      ],
      [
        "se",
        "e"
      ],
      [
        "G",
        "u"
      ],
      [
        "in",
        "k"
      ],
      [
        "v",
        "ol"
      ],
      [
        "t",
        "s"
      ],
      [
        ".",
        "."
      ],
      [
        "h",
        "and"
      ],
      [
        "in",
        "c"
      ],
      [
        "ion",
        "s"
      ],
      [
        "A",
        "pr"
      ],
      [
        "v",
        "ed"
      ],
      [
        "========",
        "========"
      ],
      [
        "Apr",
        "il"
      ],
      [
        "2",
        "6"
      ],
      [
        "?",
        "”"
      ],
      [
        "es",
        "e"
      ],
      [
        "d",
        "own"
      ],
      [
        "ic",
        "a"
      ],
      [
        "go",
        "vern"
      ],
      [
        "in",
        "ce"
      ],
      [
        "Is",
        "lands"
      ],
      [
        "th",
        "or"
      ],
      [
        "t",
        "wo"
      ],
      [
        "2",
        "7"
      ],
      [
        "2",
        "8"
      ],
      [
        "m",
        "ember"
      ],
      [
        "th",
        "ough"
      ],
      [
        "]",
        ";"
      ],
      [
        "F",
        "eb"
      ],
      [
        "ur",
        "n"
      ],
      [
        "d",
        "id"
      ],
      [
        "a",
        "ce"
      ],
      [
        "m",
        "on"
      ],
      [
        "ag",
        "ain"
      ],
      [
        "h",
        "igh"
      ],
      [
        "re",
        "g"
      ],
      [
        "ust",
        "r"
      ],
      [
        "com",
        "p"
      ],
      [
        "t",
        "a"
      ],
      [
        "D",
        "P"
      ],
      [
        "18",
        "0"
      ],
      [
        "fir",
        "st"
      ],
      [
        "com",
        "e"
      ],
      [
        "ur",
        "es"
      ],
      [
        "c",
        "ar"
      ],
      [
        "f",
        "o"
      ],
      [
        "af",
        "ter"
      ],
      [
        "ele",
        "ction"
      ],
      [
        "C",
        "on"
      ],
      [
        "a",
        "ct"
      ],
      [
        "not",
        "e"
      ],
      [
        "b",
        "ir"
      ],
      [
        "ne",
        "w"
      ],
      [
        "ut",
        "ion"
      ],
      [
        "s",
        "p"
      ],
      [
        "200",
        "1"
      ],
      [
        "w",
        "ard"
      ],
      [
        "go",
        "od"
      ],
      [
        "au",
        "thor"
      ],
      [
        "2",
        "9"
      ],
      [
        "w",
        "ater"
      ],
      [
        "al",
        "es"
      ],
      [
        "g",
        "et"
      ],
      [
        "le",
        "t"
      ],
      [
        "r",
        "ed"
      ],
      [
        "je",
        "ct"
      ],
      [
        "s",
        "m"
      ],
      [
        "i",
        "ous"
      ],
      [
        "A",
        "l"
      ],
      [
        "G",
        "e"
      ],
      [
        "ilit",
        "ary"
      ],
      [
        "c",
        "es"
      ],
      [
        "ie",
        "f"
      ],
      [
        "4",
        "3"
      ],
      [
        "a",
        "ve"
      ],
      [
        "c",
        "ur"
      ],
      [
        "c",
        "y"
      ],
      [
        "be",
        "t"
      ],
      [
        "h",
        "am"
      ],
      [
        "s",
        "pe"
      ],
      [
        "in",
        "a"
      ],
      [
        "No",
        "v"
      ],
      [
        "v",
        "ent"
      ],
      [
        "ra",
        "it"
      ],
      [
        "al",
        "ly"
      ],
      [
        "R",
        "e"
      ],
      [
        "man",
        "y"
      ],
      [
        "In",
        "d"
      ],
      [
        "S",
        "ep"
      ],
      [
        "2",
        "1"
      ],
      [
        "ap",
        "p"
      ],
      [
        "ot",
        "e"
      ],
      [
        "p",
        "s"
      ],
      [
        "R",
        "ep"
      ],
      [
        "w",
        "ell"
      ],
      [
        "I",
        "C"
      ],
      [
        "J",
        "any"
      ],
      [
        "re",
        "ad"
      ],
      [
        "A",
        "ug"
      ],
      [
        "en",
        "g"
      ],
      [
        "om",
        "an"
      ],
      [
        "De",
        "c"
      ],
      [
        "p",
        "ol"
      ],
      [
        "m",
        "s"
      ],
      [
        "an",
        "k"
      ],
      [
        "5",
        "0"
      ],
      [
        "way",
        "s"
      ],
      [
        "p",
        "ut"
      ],
      [
        "as",
        "h"
      ],
      [
        "at",
        "t"
      ],
      [
        ")",
        "/"
      ],
      [
        "s",
        "y"
      ],
      [
        "i",
        "i"
      ],
      [
        "bir",
        "th"
      ],
      [
        "pres",
        "ent"
      ],
      [
        "m",
        "u"
      ],
      [
        "d",
        "es"
      ],
      [
        "ic",
        "t"
      ],
      [
        "b",
        "ro"
      ],
      [
        "on",
        "ly"
      ],
      [
        "itt",
        "le"
      ],
      [
        "ra",
        "ph"
      ],
      [
        "sh",
        "ip"
      ],
      [
        "e",
        "ver"
      ],
      [
        "gen",
        "eral"
      ],
      [
        "v",
        "is"
      ],
      [
        "er",
        "ed"
      ],
      [
        "s",
        "q"
      ],
      [
        "f",
        "f"
      ],
      [
        "m",
        "ed"
      ],
      [
        "E",
        "R"
      ],
      [
        "i",
        "et"
      ],
      [
        "c",
        "al"
      ],
      [
        "he",
        "ld"
      ],
      [
        "i",
        "ver"
      ],
      [
        "18",
        "9"
      ],
      [
        "P",
        "art"
      ],
      [
        "c",
        "our"
      ],
      [
        "c",
        "u"
      ],
      [
        "ain",
        "t"
      ],
      [
        "port",
        "rait"
      ],
      [
        "P",
        "e"
      ],
      [
        "S",
        "outh"
      ],
      [
        "il",
        "y"
      ],
      [
        "wh",
        "ere"
      ],
      [
        "er",
        "n"
      ],
      [
        "wor",
        "k"
      ],
      [
        "in",
        "cl"
      ],
      [
        "l",
        "ight"
      ],
      [
        "ing",
        "s"
      ],
      [
        "th",
        "r"
      ],
      [
        "coun",
        "try"
      ],
      [
        "pres",
        "ident"
      ],
      [
        "i",
        "o"
      ],
      [
        "4",
        "0"
      ],
      [
        "h",
        "ow"
      ],
      [
        "P",
        "ol"
      ],
      [
        "m",
        "ade"
      ],
      [
        "s",
        "ince"
      ],
      [
        "u",
        "c"
      ],
      [
        "ct",
        "or"
      ],
      [
        "at",
        "ive"
      ],
      [
        "p",
        "p"
      ],
      [
        "4",
        "7"
      ],
      [
        "at",
        "ural"
      ],
      [
        "m",
        "en"
      ],
      [
        "l",
        "ittle"
      ],
      [
        "G",
        "DP"
      ],
      [
        "a",
        "z"
      ],
      [
        "h",
        "ouse"
      ],
      [
        "M",
        "al"
      ],
      [
        "en",
        "e"
      ],
      [
        "am",
        "b"
      ],
      [
        "c",
        "ame"
      ],
      [
        "i",
        "x"
      ],
      [
        "6",
        "5"
      ],
      [
        "Rep",
        "ublic"
      ],
      [
        "O",
        "ct"
      ],
      [
        "n",
        "ear"
      ],
      [
        "op",
        "le"
      ],
      [
        "if",
        "ic"
      ],
      [
        "govern",
        "ment"
      ],
      [
        "in",
        "s"
      ],
      [
        "er",
        "y"
      ],
      [
        "n",
        "ame"
      ],
      [
        "E",
        "d"
      ],
      [
        "E",
        "x"
      ],
      [
        "il",
        "d"
      ],
      [
        "l",
        "ed"
      ],
      [
        "Part",
        "y"
      ],
      [
        "200",
        "2"
      ],
      [
        "re",
        "m"
      ],
      [
        "l",
        "im"
      ],
      [
        "g",
        "reat"
      ],
      [
        "b",
        "ar"
      ],
      [
        "n",
        "ight"
      ],
      [
        "ch",
        "ief"
      ],
      [
        "e",
        "conom"
      ],
      [
        "c",
        "ess"
      ],
      [
        "im",
        "es"
      ],
      [
        "r",
        "ight"
      ],
      [
        "F",
        "ran"
      ],
      [
        "P",
        "ar"
      ],
      [
        "c",
        "he"
      ],
      [
        "con",
        "s"
      ],
      [
        "be",
        "fore"
      ],
      [
        "at",
        "s"
      ],
      [
        "6",
        "4"
      ],
      [
        "ow",
        "er"
      ],
      [
        "N",
        "ational"
      ],
      [
        "v",
        "ing"
      ],
      [
        "w",
        "ent"
      ],
      [
        "ur",
        "ch"
      ],
      [
        "g",
        "u"
      ],
      [
        "a",
        "h"
      ],
      [
        "R",
        "o"
      ],
      [
        "e",
        "y"
      ],
      [
        "l",
        "ess"
      ],
      [
        "el",
        "d"
      ],
      [
        "su",
        "ch"
      ],
      [
        "b",
        "or"
      ],
      [
        "6",
        "0"
      ],
      [
        "g",
        "an"
      ],
      [
        "as",
        "e"
      ],
      [
        "ic",
        "es"
      ],
      [
        "mu",
        "ch"
      ],
      [
        "le",
        "ct"
      ],
      [
        "A",
        "N"
      ],
      [
        "f",
        "in"
      ],
      [
        "F",
        "or"
      ],
      [
        "s",
        "s"
      ],
      [
        "up",
        "on"
      ],
      [
        "li",
        "e"
      ],
      [
        "un",
        "t"
      ],
      [
        "le",
        "y"
      ],
      [
        "so",
        "c"
      ],
      [
        "C",
        "om"
      ],
      [
        "st",
        "e"
      ],
      [
        "in",
        "ter"
      ],
      [
        "S",
        "he"
      ],
      [
        "m",
        "ber"
      ],
      [
        "I",
        "D"
      ],
      [
        "it",
        "al"
      ],
      [
        "C",
        "o"
      ],
      [
        "thr",
        "ough"
      ],
      [
        "Y",
        "ou"
      ],
      [
        "s",
        "ch"
      ],
      [
        "m",
        "b"
      ],
      [
        "de",
        "pend"
      ],
      [
        "ne",
        "ver"
      ],
      [
        "l",
        "aw"
      ],
      [
        ")",
        ":"
      ],
      [
        "ul",
        "ar"
      ],
      [
        "b",
        "el"
      ],
      [
        "v",
        "el"
      ],
      [
        "sh",
        "ort"
      ],
      [
        "p",
        "le"
      ],
      [
        "ing",
        "ton"
      ],
      [
        "tern",
        "ational"
      ],
      [
        "m",
        "ay"
      ],
      [
        "v",
        "es"
      ],
      [
        "incl",
        "ud"
      ],
      [
        "se",
        "t"
      ],
      [
        "su",
        "b"
      ],
      [
        "serv",
        "ice"
      ],
      [
        "is",
        "e"
      ],
      [
        "an",
        "ge"
      ],
      [
        "s",
        "ur"
      ],
      [
        "b",
        "ack"
      ],
      [
        "death",
        "s"
      ],
      [
        "P",
        "r"
      ],
      [
        "qu",
        "e"
      ],
      [
        "T",
        "o"
      ],
      [
        "g",
        "row"
      ],
      [
        "m",
        "ust"
      ],
      [
        "e",
        "very"
      ],
      [
        "part",
        "y"
      ],
      [
        "st",
        "em"
      ],
      [
        "w",
        "ar"
      ],
      [
        "ish",
        "ed"
      ],
      [
        "u",
        "b"
      ],
      [
        "h",
        "o"
      ],
      [
        "th",
        "ree"
      ],
      [
        "ic",
        "an"
      ],
      [
        "em",
        "oc"
      ],
      [
[...]
